unsigned char planb_tflite[] = {
  0x1c, 0x00, 0x00, 0x00, 0x54, 0x46, 0x4c, 0x33, 0x00, 0x00, 0x12, 0x00,
  0x1c, 0x00, 0x04, 0x00, 0x08, 0x00, 0x0c, 0x00, 0x10, 0x00, 0x14, 0x00,
  0x00, 0x00, 0x18, 0x00, 0x12, 0x00, 0x00, 0x00, 0x03, 0x00, 0x00, 0x00,
  0x14, 0x00, 0x00, 0x00, 0x68, 0x00, 0x00, 0x00, 0xa8, 0x03, 0x00, 0x00,
  0x78, 0x00, 0x00, 0x00, 0x58, 0x03, 0x00, 0x00, 0x15, 0x00, 0x00, 0x00,
  0xcc, 0x40, 0x00, 0x00, 0x5c, 0x38, 0x00, 0x00, 0xd0, 0x36, 0x00, 0x00,
  0x24, 0x35, 0x00, 0x00, 0x94, 0x34, 0x00, 0x00, 0x84, 0x2f, 0x00, 0x00,
  0x08, 0x2f, 0x00, 0x00, 0x9c, 0x2e, 0x00, 0x00, 0x34, 0x2e, 0x00, 0x00,
  0xc8, 0x2d, 0x00, 0x00, 0xf0, 0x2c, 0x00, 0x00, 0xc0, 0x29, 0x00, 0x00,
  0x48, 0x29, 0x00, 0x00, 0xa8, 0x28, 0x00, 0x00, 0xf4, 0x27, 0x00, 0x00,
  0x4c, 0x25, 0x00, 0x00, 0xcc, 0x24, 0x00, 0x00, 0xe8, 0x22, 0x00, 0x00,
  0x90, 0x20, 0x00, 0x00, 0x4c, 0x1b, 0x00, 0x00, 0xd8, 0x05, 0x00, 0x00,
  0x05, 0x00, 0x00, 0x00, 0x20, 0x33, 0x00, 0x00, 0x3c, 0x1d, 0x00, 0x00,
  0x58, 0x1a, 0x00, 0x00, 0xf4, 0x15, 0x00, 0x00, 0x44, 0x03, 0x00, 0x00,
  0xb8, 0x00, 0x00, 0x00, 0x88, 0x51, 0x00, 0x00, 0x84, 0x51, 0x00, 0x00,
  0x8c, 0x50, 0x00, 0x00, 0x7c, 0x4f, 0x00, 0x00, 0x5c, 0x4c, 0x00, 0x00,
  0xb4, 0x4b, 0x00, 0x00, 0x38, 0x4b, 0x00, 0x00, 0xd8, 0x4a, 0x00, 0x00,
  0x74, 0x4a, 0x00, 0x00, 0x14, 0x4a, 0x00, 0x00, 0xb0, 0x49, 0x00, 0x00,
  0x50, 0x49, 0x00, 0x00, 0x0c, 0x45, 0x00, 0x00, 0x4c, 0x44, 0x00, 0x00,
  0xa4, 0x43, 0x00, 0x00, 0xfc, 0x42, 0x00, 0x00, 0x50, 0x42, 0x00, 0x00,
  0xa4, 0x41, 0x00, 0x00, 0x40, 0x41, 0x00, 0x00, 0xa4, 0x40, 0x00, 0x00,
  0x38, 0x51, 0x00, 0x00, 0x34, 0x51, 0x00, 0x00, 0x30, 0x51, 0x00, 0x00,
  0x2c, 0x51, 0x00, 0x00, 0x28, 0x51, 0x00, 0x00, 0x24, 0x51, 0x00, 0x00,
  0x20, 0x51, 0x00, 0x00, 0x1c, 0x51, 0x00, 0x00, 0x18, 0x51, 0x00, 0x00,
  0x14, 0x51, 0x00, 0x00, 0x10, 0x51, 0x00, 0x00, 0x0c, 0x51, 0x00, 0x00,
  0x08, 0x51, 0x00, 0x00, 0x04, 0x51, 0x00, 0x00, 0x00, 0x51, 0x00, 0x00,
  0xfc, 0x50, 0x00, 0x00, 0xf8, 0x50, 0x00, 0x00, 0xf4, 0x50, 0x00, 0x00,
  0xf0, 0x50, 0x00, 0x00, 0xec, 0x50, 0x00, 0x00, 0xe8, 0x50, 0x00, 0x00,
  0xe4, 0x50, 0x00, 0x00, 0xe0, 0x50, 0x00, 0x00, 0xdc, 0x50, 0x00, 0x00,
  0xd8, 0x50, 0x00, 0x00, 0xd4, 0x50, 0x00, 0x00, 0xd0, 0x50, 0x00, 0x00,
  0xcc, 0x50, 0x00, 0x00, 0xc8, 0x50, 0x00, 0x00, 0xc4, 0x50, 0x00, 0x00,
  0xc0, 0x50, 0x00, 0x00, 0xbc, 0x50, 0x00, 0x00, 0xb8, 0x50, 0x00, 0x00,
  0xfc, 0x2f, 0x00, 0x00, 0x98, 0x2f, 0x00, 0x00, 0x58, 0x2f, 0x00, 0x00,
  0x18, 0x2f, 0x00, 0x00, 0xd8, 0x2e, 0x00, 0x00, 0x74, 0x2e, 0x00, 0x00,
  0x9c, 0x50, 0x00, 0x00, 0x98, 0x50, 0x00, 0x00, 0x94, 0x50, 0x00, 0x00,
  0x90, 0x50, 0x00, 0x00, 0x8c, 0x50, 0x00, 0x00, 0x88, 0x50, 0x00, 0x00,
  0x84, 0x50, 0x00, 0x00, 0x80, 0x50, 0x00, 0x00, 0x7c, 0x50, 0x00, 0x00,
  0x78, 0x50, 0x00, 0x00, 0x74, 0x50, 0x00, 0x00, 0x70, 0x50, 0x00, 0x00,
  0x6c, 0x50, 0x00, 0x00, 0x68, 0x50, 0x00, 0x00, 0x64, 0x50, 0x00, 0x00,
  0x60, 0x50, 0x00, 0x00, 0x5c, 0x50, 0x00, 0x00, 0x58, 0x50, 0x00, 0x00,
  0x54, 0x50, 0x00, 0x00, 0x50, 0x50, 0x00, 0x00, 0x4c, 0x50, 0x00, 0x00,
  0x48, 0x50, 0x00, 0x00, 0x44, 0x50, 0x00, 0x00, 0x40, 0x50, 0x00, 0x00,
  0x3c, 0x50, 0x00, 0x00, 0x38, 0x50, 0x00, 0x00, 0x34, 0x50, 0x00, 0x00,
  0x30, 0x50, 0x00, 0x00, 0x2c, 0x50, 0x00, 0x00, 0x28, 0x50, 0x00, 0x00,
  0x24, 0x50, 0x00, 0x00, 0x20, 0x50, 0x00, 0x00, 0x1c, 0x50, 0x00, 0x00,
  0x18, 0x50, 0x00, 0x00, 0x14, 0x50, 0x00, 0x00, 0x10, 0x50, 0x00, 0x00,
  0x0c, 0x50, 0x00, 0x00, 0x08, 0x50, 0x00, 0x00, 0x04, 0x50, 0x00, 0x00,
  0x00, 0x50, 0x00, 0x00, 0xfc, 0x4f, 0x00, 0x00, 0xf8, 0x4f, 0x00, 0x00,
  0xf4, 0x4f, 0x00, 0x00, 0xf0, 0x4f, 0x00, 0x00, 0xec, 0x4f, 0x00, 0x00,
  0xe8, 0x4f, 0x00, 0x00, 0xe4, 0x4f, 0x00, 0x00, 0xe0, 0x4f, 0x00, 0x00,
  0xdc, 0x4f, 0x00, 0x00, 0xd8, 0x4f, 0x00, 0x00, 0xd4, 0x4f, 0x00, 0x00,
  0xd0, 0x4f, 0x00, 0x00, 0xcc, 0x4f, 0x00, 0x00, 0xc8, 0x4f, 0x00, 0x00,
  0xc4, 0x4f, 0x00, 0x00, 0xc0, 0x4f, 0x00, 0x00, 0xbc, 0x4f, 0x00, 0x00,
  0xb8, 0x4f, 0x00, 0x00, 0xb4, 0x4f, 0x00, 0x00, 0xb0, 0x4f, 0x00, 0x00,
  0xac, 0x4f, 0x00, 0x00, 0xa8, 0x4f, 0x00, 0x00, 0xa4, 0x4f, 0x00, 0x00,
  0xa0, 0x4f, 0x00, 0x00, 0x9c, 0x4f, 0x00, 0x00, 0x98, 0x4f, 0x00, 0x00,
  0x94, 0x4f, 0x00, 0x00, 0x90, 0x4f, 0x00, 0x00, 0x8c, 0x4f, 0x00, 0x00,
  0x88, 0x4f, 0x00, 0x00, 0x84, 0x4f, 0x00, 0x00, 0x80, 0x4f, 0x00, 0x00,
  0x7c, 0x4f, 0x00, 0x00, 0x78, 0x4f, 0x00, 0x00, 0x74, 0x4f, 0x00, 0x00,
  0x70, 0x4f, 0x00, 0x00, 0x6c, 0x4f, 0x00, 0x00, 0x68, 0x4f, 0x00, 0x00,
  0x64, 0x4f, 0x00, 0x00, 0x60, 0x4f, 0x00, 0x00, 0x5c, 0x4f, 0x00, 0x00,
  0x58, 0x4f, 0x00, 0x00, 0x54, 0x4f, 0x00, 0x00, 0x50, 0x4f, 0x00, 0x00,
  0x4c, 0x4f, 0x00, 0x00, 0x48, 0x4f, 0x00, 0x00, 0x44, 0x4f, 0x00, 0x00,
  0x40, 0x4f, 0x00, 0x00, 0x3c, 0x4f, 0x00, 0x00, 0x38, 0x4f, 0x00, 0x00,
  0x34, 0x4f, 0x00, 0x00, 0x30, 0x4f, 0x00, 0x00, 0x2c, 0x4f, 0x00, 0x00,
  0x28, 0x4f, 0x00, 0x00, 0x24, 0x4f, 0x00, 0x00, 0x20, 0x4f, 0x00, 0x00,
  0x1c, 0x4f, 0x00, 0x00, 0x18, 0x4f, 0x00, 0x00, 0x14, 0x4f, 0x00, 0x00,
  0x10, 0x4f, 0x00, 0x00, 0x0c, 0x4f, 0x00, 0x00, 0x08, 0x4f, 0x00, 0x00,
  0x04, 0x4f, 0x00, 0x00, 0x00, 0x4f, 0x00, 0x00, 0xfc, 0x4e, 0x00, 0x00,
  0xf8, 0x4e, 0x00, 0x00, 0xf4, 0x4e, 0x00, 0x00, 0xf0, 0x4e, 0x00, 0x00,
  0xec, 0x4e, 0x00, 0x00, 0xe8, 0x4e, 0x00, 0x00, 0xe4, 0x4e, 0x00, 0x00,
  0xe0, 0x4e, 0x00, 0x00, 0xdc, 0x4e, 0x00, 0x00, 0xd8, 0x4e, 0x00, 0x00,
  0xd4, 0x4e, 0x00, 0x00, 0xd0, 0x4e, 0x00, 0x00, 0xcc, 0x4e, 0x00, 0x00,
  0xc8, 0x4e, 0x00, 0x00, 0xc4, 0x4e, 0x00, 0x00, 0xc0, 0x4e, 0x00, 0x00,
  0xbc, 0x4e, 0x00, 0x00, 0xb8, 0x4e, 0x00, 0x00, 0xb4, 0x4e, 0x00, 0x00,
  0xb0, 0x4e, 0x00, 0x00, 0x30, 0x00, 0x00, 0x00, 0x01, 0x00, 0x00, 0x00,
  0x04, 0x00, 0x00, 0x00, 0x0c, 0xcb, 0xff, 0xff, 0x08, 0x00, 0x00, 0x00,
  0xb7, 0x00, 0x00, 0x00, 0x13, 0x00, 0x00, 0x00, 0x6d, 0x69, 0x6e, 0x5f,
  0x72, 0x75, 0x6e, 0x74, 0x69, 0x6d, 0x65, 0x5f, 0x76, 0x65, 0x72, 0x73,
  0x69, 0x6f, 0x6e, 0x00, 0x7e, 0xb2, 0xff, 0xff, 0x04, 0x00, 0x00, 0x00,
  0x10, 0x00, 0x00, 0x00, 0x31, 0x2e, 0x31, 0x34, 0x2e, 0x30, 0x00, 0x00,
  0x00, 0x00, 0x00, 0x00, 0x00, 0x00, 0x00, 0x00, 0x0f, 0x00, 0x00, 0x00,
  0x4d, 0x4c, 0x49, 0x52, 0x20, 0x43, 0x6f, 0x6e, 0x76, 0x65, 0x72, 0x74,
  0x65, 0x64, 0x2e, 0x00, 0x42, 0xd0, 0xff, 0xff, 0x14, 0x00, 0x00, 0x00,
  0xe4, 0x00, 0x00, 0x00, 0x28, 0x01, 0x00, 0x00, 0x6c, 0x01, 0x00, 0x00,
  0xec, 0x01, 0x00, 0x00, 0x34, 0x00, 0x00, 0x00, 0x64, 0x12, 0x00, 0x00,
  0x34, 0x12, 0x00, 0x00, 0x08, 0x12, 0x00, 0x00, 0xdc, 0x11, 0x00, 0x00,
  0xb0, 0x11, 0x00, 0x00, 0x84, 0x11, 0x00, 0x00, 0x54, 0x11, 0x00, 0x00,
  0x24, 0x11, 0x00, 0x00, 0xf0, 0x10, 0x00, 0x00, 0xb8, 0x10, 0x00, 0x00,
  0x84, 0x10, 0x00, 0x00, 0x54, 0x10, 0x00, 0x00, 0x20, 0x10, 0x00, 0x00,
  0xf0, 0x0f, 0x00, 0x00, 0xbc, 0x0f, 0x00, 0x00, 0x8c, 0x0f, 0x00, 0x00,
  0x58, 0x0f, 0x00, 0x00, 0x28, 0x0f, 0x00, 0x00, 0xc8, 0x0e, 0x00, 0x00,
  0x48, 0x0e, 0x00, 0x00, 0xe8, 0x0d, 0x00, 0x00, 0x88, 0x0d, 0x00, 0x00,
  0x28, 0x0d, 0x00, 0x00, 0xcc, 0x0c, 0x00, 0x00, 0xa0, 0x0c, 0x00, 0x00,
  0x74, 0x0c, 0x00, 0x00, 0x48, 0x0c, 0x00, 0x00, 0xd8, 0x0b, 0x00, 0x00,
  0x88, 0x0b, 0x00, 0x00, 0x3c, 0x0b, 0x00, 0x00, 0xdc, 0x0a, 0x00, 0x00,
  0x90, 0x0a, 0x00, 0x00, 0x44, 0x0a, 0x00, 0x00, 0xe8, 0x09, 0x00, 0x00,
  0x8c, 0x09, 0x00, 0x00, 0x40, 0x09, 0x00, 0x00, 0xc0, 0x08, 0x00, 0x00,
  0x4c, 0x08, 0x00, 0x00, 0xdc, 0x07, 0x00, 0x00, 0x68, 0x07, 0x00, 0x00,
  0xe4, 0x06, 0x00, 0x00, 0x74, 0x06, 0x00, 0x00, 0x00, 0x06, 0x00, 0x00,
  0x84, 0x05, 0x00, 0x00, 0x08, 0x05, 0x00, 0x00, 0x98, 0x04, 0x00, 0x00,
  0x18, 0x04, 0x00, 0x00, 0x9c, 0x03, 0x00, 0x00, 0x28, 0x03, 0x00, 0x00,
  0xac, 0x02, 0x00, 0x00, 0x48, 0x02, 0x00, 0x00, 0xa0, 0x01, 0x00, 0x00,
  0x11, 0x00, 0x00, 0x00, 0x00, 0x00, 0x00, 0x00, 0x01, 0x00, 0x00, 0x00,
  0x02, 0x00, 0x00, 0x00, 0x03, 0x00, 0x00, 0x00, 0x04, 0x00, 0x00, 0x00,
  0x05, 0x00, 0x00, 0x00, 0x06, 0x00, 0x00, 0x00, 0x07, 0x00, 0x00, 0x00,
  0x08, 0x00, 0x00, 0x00, 0x09, 0x00, 0x00, 0x00, 0x0a, 0x00, 0x00, 0x00,
  0x0b, 0x00, 0x00, 0x00, 0x0c, 0x00, 0x00, 0x00, 0x0d, 0x00, 0x00, 0x00,
  0x0e, 0x00, 0x00, 0x00, 0x0f, 0x00, 0x00, 0x00, 0x10, 0x00, 0x00, 0x00,
  0x11, 0x00, 0x00, 0x00, 0x32, 0x00, 0x00, 0x00, 0x11, 0x00, 0x00, 0x00,
  0x31, 0x00, 0x00, 0x00, 0x23, 0x00, 0x00, 0x00, 0x21, 0x00, 0x00, 0x00,
  0x33, 0x00, 0x00, 0x00, 0x06, 0x00, 0x00, 0x00, 0x07, 0x00, 0x00, 0x00,
  0x08, 0x00, 0x00, 0x00, 0x09, 0x00, 0x00, 0x00, 0x0a, 0x00, 0x00, 0x00,
  0x0b, 0x00, 0x00, 0x00, 0x0c, 0x00, 0x00, 0x00, 0x0d, 0x00, 0x00, 0x00,
  0x0e, 0x00, 0x00, 0x00, 0x0f, 0x00, 0x00, 0x00, 0x10, 0x00, 0x00, 0x00,
  0x20, 0x00, 0x00, 0x00, 0xd8, 0x0d, 0x00, 0x00, 0x74, 0x0d, 0x00, 0x00,
  0xf8, 0x0c, 0x00, 0x00, 0x94, 0x0c, 0x00, 0x00, 0x38, 0x0c, 0x00, 0x00,
  0xd8, 0x0b, 0x00, 0x00, 0xf4, 0x0a, 0x00, 0x00, 0xa4, 0x0a, 0x00, 0x00,
  0x54, 0x0a, 0x00, 0x00, 0xf8, 0x09, 0x00, 0x00, 0xa8, 0x09, 0x00, 0x00,
  0x5c, 0x09, 0x00, 0x00, 0x00, 0x09, 0x00, 0x00, 0xa4, 0x08, 0x00, 0x00,
  0x58, 0x08, 0x00, 0x00, 0xfc, 0x07, 0x00, 0x00, 0x8c, 0x07, 0x00, 0x00,
  0x18, 0x07, 0x00, 0x00, 0xa4, 0x06, 0x00, 0x00, 0x24, 0x06, 0x00, 0x00,
  0xb0, 0x05, 0x00, 0x00, 0x3c, 0x05, 0x00, 0x00, 0xbc, 0x04, 0x00, 0x00,
  0x48, 0x04, 0x00, 0x00, 0xd4, 0x03, 0x00, 0x00, 0x54, 0x03, 0x00, 0x00,
  0xd4, 0x02, 0x00, 0x00, 0x60, 0x02, 0x00, 0x00, 0xe4, 0x01, 0x00, 0x00,
  0x64, 0x01, 0x00, 0x00, 0x04, 0x01, 0x00, 0x00, 0x60, 0x00, 0x00, 0x00,
  0x54, 0x00, 0x00, 0x00, 0x77, 0x68, 0x69, 0x6c, 0x65, 0x3b, 0x53, 0x74,
  0x61, 0x74, 0x65, 0x66, 0x75, 0x6c, 0x50, 0x61, 0x72, 0x74, 0x69, 0x74,
  0x69, 0x6f, 0x6e, 0x65, 0x64, 0x43, 0x61, 0x6c, 0x6c, 0x2f, 0x73, 0x65,
  0x71, 0x75, 0x65, 0x6e, 0x74, 0x69, 0x61, 0x6c, 0x5f, 0x33, 0x2f, 0x6c,
  0x73, 0x74, 0x6d, 0x5f, 0x33, 0x2f, 0x53, 0x74, 0x61, 0x74, 0x65, 0x66,
  0x75, 0x6c, 0x50, 0x61, 0x72, 0x74, 0x69, 0x74, 0x69, 0x6f, 0x6e, 0x65,
  0x64, 0x43, 0x61, 0x6c, 0x6c, 0x2f, 0x77, 0x68, 0x69, 0x6c, 0x65, 0x5f,
  0x62, 0x6f, 0x64, 0x79, 0x00, 0x00, 0x00, 0x00, 0x12, 0xd7, 0xff, 0xff,
  0x14, 0x00, 0x00, 0x00, 0x10, 0x00, 0x00, 0x00, 0x04, 0x00, 0x00, 0x00,
  0x01, 0x00, 0x00, 0x00, 0x33, 0x00, 0x00, 0x00, 0x01, 0x00, 0x00, 0x00,
  0x09, 0x00, 0x00, 0x00, 0x66, 0xc5, 0xff, 0xff, 0x00, 0x00, 0x00, 0x35,
  0x01, 0x00, 0x00, 0x00, 0x8a, 0xb4, 0xff, 0xff, 0x10, 0x00, 0x00, 0x00,
  0xb6, 0x00, 0x00, 0x00, 0x0c, 0x00, 0x00, 0x00, 0x60, 0x00, 0x00, 0x00,
  0x00, 0x00, 0x00, 0x00, 0x51, 0x00, 0x00, 0x00, 0x77, 0x68, 0x69, 0x6c,
  0x65, 0x3b, 0x53, 0x74, 0x61, 0x74, 0x65, 0x66, 0x75, 0x6c, 0x50, 0x61,
  0x72, 0x74, 0x69, 0x74, 0x69, 0x6f, 0x6e, 0x65, 0x64, 0x43, 0x61, 0x6c,
  0x6c, 0x2f, 0x73, 0x65, 0x71, 0x75, 0x65, 0x6e, 0x74, 0x69, 0x61, 0x6c,
  0x5f, 0x33, 0x2f, 0x6c, 0x73, 0x74, 0x6d, 0x5f, 0x33, 0x2f, 0x53, 0x74,
  0x61, 0x74, 0x65, 0x66, 0x75, 0x6c, 0x50, 0x61, 0x72, 0x74, 0x69, 0x74,
  0x69, 0x6f, 0x6e, 0x65, 0x64, 0x43, 0x61, 0x6c, 0x6c, 0x2f, 0x77, 0x68,
  0x69, 0x6c, 0x65, 0x31, 0x38, 0x00, 0x00, 0x00, 0xb0, 0xb4, 0xff, 0xff,
  0x12, 0xcf, 0xff, 0xff, 0x00, 0x00, 0x00, 0x0b, 0x05, 0x00, 0x00, 0x00,
  0x18, 0x00, 0x00, 0x00, 0x0c, 0x00, 0x00, 0x00, 0x04, 0x00, 0x00, 0x00,
  0xcc, 0xb4, 0xff, 0xff, 0x01, 0x00, 0x00, 0x00, 0x32, 0x00, 0x00, 0x00,
  0x02, 0x00, 0x00, 0x00, 0x00, 0x00, 0x00, 0x00, 0x07, 0x00, 0x00, 0x00,
  0x8e, 0xba, 0xff, 0xff, 0x00, 0x00, 0x00, 0x02, 0x10, 0x00, 0x00, 0x00,
  0xb5, 0x00, 0x00, 0x00, 0x0c, 0x00, 0x00, 0x00, 0x14, 0x00, 0x00, 0x00,
  0x00, 0x00, 0x00, 0x00, 0x06, 0x00, 0x00, 0x00, 0x61, 0x64, 0x64, 0x5f,
  0x33, 0x31, 0x00, 0x00, 0x0c, 0xb5, 0xff, 0xff, 0x6e, 0xcf, 0xff, 0xff,
  0x00, 0x00, 0x00, 0x0a, 0x10, 0x00, 0x00, 0x00, 0x18, 0x00, 0x00, 0x00,
  0x0c, 0x00, 0x00, 0x00, 0x04, 0x00, 0x00, 0x00, 0x28, 0xb5, 0xff, 0xff,
  0x01, 0x00, 0x00, 0x00, 0x31, 0x00, 0x00, 0x00, 0x03, 0x00, 0x00, 0x00,
  0x2b, 0x00, 0x00, 0x00, 0x30, 0x00, 0x00, 0x00, 0x2f, 0x00, 0x00, 0x00,
  0x8e, 0xb5, 0xff, 0xff, 0x10, 0x00, 0x00, 0x00, 0xb4, 0x00, 0x00, 0x00,
  0x0c, 0x00, 0x00, 0x00, 0x34, 0x00, 0x00, 0x00, 0x00, 0x00, 0x00, 0x00,
  0x26, 0x00, 0x00, 0x00, 0x54, 0x65, 0x6e, 0x73, 0x6f, 0x72, 0x41, 0x72,
  0x72, 0x61, 0x79, 0x56, 0x32, 0x57, 0x72, 0x69, 0x74, 0x65, 0x2f, 0x54,
  0x65, 0x6e, 0x73, 0x6f, 0x72, 0x4c, 0x69, 0x73, 0x74, 0x53, 0x65, 0x74,
  0x49, 0x74, 0x65, 0x6d, 0x33, 0x36, 0x00, 0x00, 0x88, 0xb5, 0xff, 0xff,
  0xea, 0xcf, 0xff, 0xff, 0x00, 0x00, 0x00, 0x34, 0x12, 0x00, 0x00, 0x00,
  0x18, 0x00, 0x00, 0x00, 0x0c, 0x00, 0x00, 0x00, 0x04, 0x00, 0x00, 0x00,
  0xa4, 0xb5, 0xff, 0xff, 0x01, 0x00, 0x00, 0x00, 0x30, 0x00, 0x00, 0x00,
  0x02, 0x00, 0x00, 0x00, 0x23, 0x00, 0x00, 0x00, 0x0d, 0x00, 0x00, 0x00,
  0x06, 0xb6, 0xff, 0xff, 0x10, 0x00, 0x00, 0x00, 0xb3, 0x00, 0x00, 0x00,
  0x0c, 0x00, 0x00, 0x00, 0x34, 0x00, 0x00, 0x00, 0x00, 0x00, 0x00, 0x00,
  0x26, 0x00, 0x00, 0x00, 0x54, 0x65, 0x6e, 0x73, 0x6f, 0x72, 0x41, 0x72,
  0x72, 0x61, 0x79, 0x56, 0x32, 0x57, 0x72, 0x69, 0x74, 0x65, 0x2f, 0x54,
  0x65, 0x6e, 0x73, 0x6f, 0x72, 0x4c, 0x69, 0x73, 0x74, 0x53, 0x65, 0x74,
  0x49, 0x74, 0x65, 0x6d, 0x33, 0x35, 0x00, 0x00, 0x00, 0xb6, 0xff, 0xff,
  0x02, 0xd9, 0xff, 0xff, 0x11, 0x00, 0x00, 0x00, 0x10, 0x00, 0x00, 0x00,
  0x04, 0x00, 0x00, 0x00, 0x01, 0x00, 0x00, 0x00, 0x2f, 0x00, 0x00, 0x00,
  0x03, 0x00, 0x00, 0x00, 0x02, 0x00, 0x00, 0x00, 0x2d, 0x00, 0x00, 0x00,
  0x2e, 0x00, 0x00, 0x00, 0x76, 0xb6, 0xff, 0xff, 0x10, 0x00, 0x00, 0x00,
  0xb2, 0x00, 0x00, 0x00, 0x0c, 0x00, 0x00, 0x00, 0x34, 0x00, 0x00, 0x00,
  0x00, 0x00, 0x00, 0x00, 0x26, 0x00, 0x00, 0x00, 0x54, 0x65, 0x6e, 0x73,
  0x6f, 0x72, 0x41, 0x72, 0x72, 0x61, 0x79, 0x56, 0x32, 0x57, 0x72, 0x69,
  0x74, 0x65, 0x2f, 0x54, 0x65, 0x6e, 0x73, 0x6f, 0x72, 0x4c, 0x69, 0x73,
  0x74, 0x53, 0x65, 0x74, 0x49, 0x74, 0x65, 0x6d, 0x33, 0x34, 0x00, 0x00,
  0x70, 0xb6, 0xff, 0xff, 0xd2, 0xd0, 0xff, 0xff, 0x00, 0x00, 0x00, 0x0a,
  0x10, 0x00, 0x00, 0x00, 0x18, 0x00, 0x00, 0x00, 0x0c, 0x00, 0x00, 0x00,
  0x04, 0x00, 0x00, 0x00, 0x8c, 0xb6, 0xff, 0xff, 0x01, 0x00, 0x00, 0x00,
  0x2e, 0x00, 0x00, 0x00, 0x02, 0x00, 0x00, 0x00, 0x10, 0x00, 0x00, 0x00,
  0x29, 0x00, 0x00, 0x00, 0x4e, 0xbc, 0xff, 0xff, 0x00, 0x00, 0x00, 0x02,
  0x10, 0x00, 0x00, 0x00, 0xb1, 0x00, 0x00, 0x00, 0x0c, 0x00, 0x00, 0x00,
  0x34, 0x00, 0x00, 0x00, 0x00, 0x00, 0x00, 0x00, 0x26, 0x00, 0x00, 0x00,
  0x54, 0x65, 0x6e, 0x73, 0x6f, 0x72, 0x41, 0x72, 0x72, 0x61, 0x79, 0x56,
  0x32, 0x57, 0x72, 0x69, 0x74, 0x65, 0x2f, 0x54, 0x65, 0x6e, 0x73, 0x6f,
  0x72, 0x4c, 0x69, 0x73, 0x74, 0x53, 0x65, 0x74, 0x49, 0x74, 0x65, 0x6d,
  0x33, 0x33, 0x00, 0x00, 0xec, 0xb6, 0xff, 0xff, 0x4e, 0xd1, 0xff, 0xff,
  0x00, 0x00, 0x00, 0x0a, 0x10, 0x00, 0x00, 0x00, 0x18, 0x00, 0x00, 0x00,
  0x0c, 0x00, 0x00, 0x00, 0x04, 0x00, 0x00, 0x00, 0x08, 0xb7, 0xff, 0xff,
  0x01, 0x00, 0x00, 0x00, 0x2d, 0x00, 0x00, 0x00, 0x02, 0x00, 0x00, 0x00,
  0x2c, 0x00, 0x00, 0x00, 0x26, 0x00, 0x00, 0x00, 0xca, 0xbc, 0xff, 0xff,
  0x00, 0x00, 0x00, 0x02, 0x10, 0x00, 0x00, 0x00, 0xb0, 0x00, 0x00, 0x00,
  0x0c, 0x00, 0x00, 0x00, 0x34, 0x00, 0x00, 0x00, 0x00, 0x00, 0x00, 0x00,
  0x26, 0x00, 0x00, 0x00, 0x54, 0x65, 0x6e, 0x73, 0x6f, 0x72, 0x41, 0x72,
  0x72, 0x61, 0x79, 0x56, 0x32, 0x57, 0x72, 0x69, 0x74, 0x65, 0x2f, 0x54,
  0x65, 0x6e, 0x73, 0x6f, 0x72, 0x4c, 0x69, 0x73, 0x74, 0x53, 0x65, 0x74,
  0x49, 0x74, 0x65, 0x6d, 0x33, 0x32, 0x00, 0x00, 0x68, 0xb7, 0xff, 0xff,
  0xca, 0xc8, 0xff, 0xff, 0x10, 0x00, 0x00, 0x00, 0x04, 0x00, 0x00, 0x00,
  0x01, 0x00, 0x00, 0x00, 0x2c, 0x00, 0x00, 0x00, 0x02, 0x00, 0x00, 0x00,
  0x11, 0x00, 0x00, 0x00, 0x0c, 0x00, 0x00, 0x00, 0x36, 0xbd, 0xff, 0xff,
  0x00, 0x00, 0x00, 0x02, 0x10, 0x00, 0x00, 0x00, 0xaf, 0x00, 0x00, 0x00,
  0x10, 0x00, 0x00, 0x00, 0x38, 0x00, 0x00, 0x00, 0x01, 0x00, 0x00, 0x00,
  0x01, 0x00, 0x00, 0x00, 0x26, 0x00, 0x00, 0x00, 0x54, 0x65, 0x6e, 0x73,
  0x6f, 0x72, 0x41, 0x72, 0x72, 0x61, 0x79, 0x56, 0x32, 0x57, 0x72, 0x69,
  0x74, 0x65, 0x2f, 0x54, 0x65, 0x6e, 0x73, 0x6f, 0x72, 0x4c, 0x69, 0x73,
  0x74, 0x53, 0x65, 0x74, 0x49, 0x74, 0x65, 0x6d, 0x33, 0x31, 0x00, 0x00,
  0xd8, 0xb7, 0xff, 0xff, 0xda, 0xda, 0xff, 0xff, 0x11, 0x00, 0x00, 0x00,
  0x10, 0x00, 0x00, 0x00, 0x04, 0x00, 0x00, 0x00, 0x01, 0x00, 0x00, 0x00,
  0x2b, 0x00, 0x00, 0x00, 0x03, 0x00, 0x00, 0x00, 0x02, 0x00, 0x00, 0x00,
  0x27, 0x00, 0x00, 0x00, 0x2a, 0x00, 0x00, 0x00, 0x4e, 0xb8, 0xff, 0xff,
  0x10, 0x00, 0x00, 0x00, 0xae, 0x00, 0x00, 0x00, 0x0c, 0x00, 0x00, 0x00,
  0x34, 0x00, 0x00, 0x00, 0x00, 0x00, 0x00, 0x00, 0x26, 0x00, 0x00, 0x00,
  0x54, 0x65, 0x6e, 0x73, 0x6f, 0x72, 0x41, 0x72, 0x72, 0x61, 0x79, 0x56,
  0x32, 0x57, 0x72, 0x69, 0x74, 0x65, 0x2f, 0x54, 0x65, 0x6e, 0x73, 0x6f,
  0x72, 0x4c, 0x69, 0x73, 0x74, 0x53, 0x65, 0x74, 0x49, 0x74, 0x65, 0x6d,
  0x33, 0x30, 0x00, 0x00, 0x48, 0xb8, 0xff, 0xff, 0xaa, 0xd2, 0xff, 0xff,
  0x00, 0x00, 0x00, 0x0a, 0x10, 0x00, 0x00, 0x00, 0x18, 0x00, 0x00, 0x00,
  0x0c, 0x00, 0x00, 0x00, 0x04, 0x00, 0x00, 0x00, 0x64, 0xb8, 0xff, 0xff,
  0x01, 0x00, 0x00, 0x00, 0x2a, 0x00, 0x00, 0x00, 0x02, 0x00, 0x00, 0x00,
  0x28, 0x00, 0x00, 0x00, 0x29, 0x00, 0x00, 0x00, 0x26, 0xbe, 0xff, 0xff,
  0x00, 0x00, 0x00, 0x02, 0x10, 0x00, 0x00, 0x00, 0xad, 0x00, 0x00, 0x00,
  0x0c, 0x00, 0x00, 0x00, 0x34, 0x00, 0x00, 0x00, 0x00, 0x00, 0x00, 0x00,
  0x26, 0x00, 0x00, 0x00, 0x54, 0x65, 0x6e, 0x73, 0x6f, 0x72, 0x41, 0x72,
  0x72, 0x61, 0x79, 0x56, 0x32, 0x57, 0x72, 0x69, 0x74, 0x65, 0x2f, 0x54,
  0x65, 0x6e, 0x73, 0x6f, 0x72, 0x4c, 0x69, 0x73, 0x74, 0x53, 0x65, 0x74,
  0x49, 0x74, 0x65, 0x6d, 0x32, 0x39, 0x00, 0x00, 0xc4, 0xb8, 0xff, 0xff,
  0xc6, 0xdb, 0xff, 0xff, 0x0f, 0x00, 0x00, 0x00, 0x10, 0x00, 0x00, 0x00,
  0x04, 0x00, 0x00, 0x00, 0x01, 0x00, 0x00, 0x00, 0x29, 0x00, 0x00, 0x00,
  0x02, 0x00, 0x00, 0x00, 0x25, 0x00, 0x00, 0x00, 0x0f, 0x00, 0x00, 0x00,
  0x96, 0xbe, 0xff, 0xff, 0x00, 0x00, 0x00, 0x02, 0x10, 0x00, 0x00, 0x00,
  0xac, 0x00, 0x00, 0x00, 0x0c, 0x00, 0x00, 0x00, 0x34, 0x00, 0x00, 0x00,
  0x00, 0x00, 0x00, 0x00, 0x26, 0x00, 0x00, 0x00, 0x54, 0x65, 0x6e, 0x73,
  0x6f, 0x72, 0x41, 0x72, 0x72, 0x61, 0x79, 0x56, 0x32, 0x57, 0x72, 0x69,
  0x74, 0x65, 0x2f, 0x54, 0x65, 0x6e, 0x73, 0x6f, 0x72, 0x4c, 0x69, 0x73,
  0x74, 0x53, 0x65, 0x74, 0x49, 0x74, 0x65, 0x6d, 0x32, 0x38, 0x00, 0x00,
  0x34, 0xb9, 0xff, 0xff, 0x96, 0xca, 0xff, 0xff, 0x10, 0x00, 0x00, 0x00,
  0x04, 0x00, 0x00, 0x00, 0x01, 0x00, 0x00, 0x00, 0x28, 0x00, 0x00, 0x00,
  0x02, 0x00, 0x00, 0x00, 0x01, 0x00, 0x00, 0x00, 0x0c, 0x00, 0x00, 0x00,
  0x02, 0xbf, 0xff, 0xff, 0x00, 0x00, 0x00, 0x02, 0x10, 0x00, 0x00, 0x00,
  0xab, 0x00, 0x00, 0x00, 0x10, 0x00, 0x00, 0x00, 0x38, 0x00, 0x00, 0x00,
  0x01, 0x00, 0x00, 0x00, 0x01, 0x00, 0x00, 0x00, 0x26, 0x00, 0x00, 0x00,
  0x54, 0x65, 0x6e, 0x73, 0x6f, 0x72, 0x41, 0x72, 0x72, 0x61, 0x79, 0x56,
  0x32, 0x57, 0x72, 0x69, 0x74, 0x65, 0x2f, 0x54, 0x65, 0x6e, 0x73, 0x6f,
  0x72, 0x4c, 0x69, 0x73, 0x74, 0x53, 0x65, 0x74, 0x49, 0x74, 0x65, 0x6d,
  0x32, 0x37, 0x00, 0x00, 0xa4, 0xb9, 0xff, 0xff, 0x06, 0xd4, 0xff, 0xff,
  0x00, 0x00, 0x00, 0x0a, 0x10, 0x00, 0x00, 0x00, 0x18, 0x00, 0x00, 0x00,
  0x0c, 0x00, 0x00, 0x00, 0x04, 0x00, 0x00, 0x00, 0xc0, 0xb9, 0xff, 0xff,
  0x01, 0x00, 0x00, 0x00, 0x27, 0x00, 0x00, 0x00, 0x02, 0x00, 0x00, 0x00,
  0x0e, 0x00, 0x00, 0x00, 0x26, 0x00, 0x00, 0x00, 0x82, 0xbf, 0xff, 0xff,
  0x00, 0x00, 0x00, 0x02, 0x10, 0x00, 0x00, 0x00, 0xaa, 0x00, 0x00, 0x00,
  0x0c, 0x00, 0x00, 0x00, 0x34, 0x00, 0x00, 0x00, 0x00, 0x00, 0x00, 0x00,
  0x26, 0x00, 0x00, 0x00, 0x54, 0x65, 0x6e, 0x73, 0x6f, 0x72, 0x41, 0x72,
  0x72, 0x61, 0x79, 0x56, 0x32, 0x57, 0x72, 0x69, 0x74, 0x65, 0x2f, 0x54,
  0x65, 0x6e, 0x73, 0x6f, 0x72, 0x4c, 0x69, 0x73, 0x74, 0x53, 0x65, 0x74,
  0x49, 0x74, 0x65, 0x6d, 0x32, 0x36, 0x00, 0x00, 0x20, 0xba, 0xff, 0xff,
  0x22, 0xdd, 0xff, 0xff, 0x0f, 0x00, 0x00, 0x00, 0x10, 0x00, 0x00, 0x00,
  0x04, 0x00, 0x00, 0x00, 0x01, 0x00, 0x00, 0x00, 0x26, 0x00, 0x00, 0x00,
  0x02, 0x00, 0x00, 0x00, 0x25, 0x00, 0x00, 0x00, 0x0d, 0x00, 0x00, 0x00,
  0xf2, 0xbf, 0xff, 0xff, 0x00, 0x00, 0x00, 0x02, 0x10, 0x00, 0x00, 0x00,
  0xa9, 0x00, 0x00, 0x00, 0x0c, 0x00, 0x00, 0x00, 0x34, 0x00, 0x00, 0x00,
  0x00, 0x00, 0x00, 0x00, 0x26, 0x00, 0x00, 0x00, 0x54, 0x65, 0x6e, 0x73,
  0x6f, 0x72, 0x41, 0x72, 0x72, 0x61, 0x79, 0x56, 0x32, 0x57, 0x72, 0x69,
  0x74, 0x65, 0x2f, 0x54, 0x65, 0x6e, 0x73, 0x6f, 0x72, 0x4c, 0x69, 0x73,
  0x74, 0x53, 0x65, 0x74, 0x49, 0x74, 0x65, 0x6d, 0x32, 0x35, 0x00, 0x00,
  0x90, 0xba, 0xff, 0xff, 0xf2, 0xcb, 0xff, 0xff, 0x10, 0x00, 0x00, 0x00,
  0x04, 0x00, 0x00, 0x00, 0x01, 0x00, 0x00, 0x00, 0x25, 0x00, 0x00, 0x00,
  0x02, 0x00, 0x00, 0x00, 0x24, 0x00, 0x00, 0x00, 0x0c, 0x00, 0x00, 0x00,
  0x5e, 0xc0, 0xff, 0xff, 0x00, 0x00, 0x00, 0x02, 0x10, 0x00, 0x00, 0x00,
  0xa8, 0x00, 0x00, 0x00, 0x10, 0x00, 0x00, 0x00, 0x38, 0x00, 0x00, 0x00,
  0x01, 0x00, 0x00, 0x00, 0x01, 0x00, 0x00, 0x00, 0x26, 0x00, 0x00, 0x00,
  0x54, 0x65, 0x6e, 0x73, 0x6f, 0x72, 0x41, 0x72, 0x72, 0x61, 0x79, 0x56,
  0x32, 0x57, 0x72, 0x69, 0x74, 0x65, 0x2f, 0x54, 0x65, 0x6e, 0x73, 0x6f,
  0x72, 0x4c, 0x69, 0x73, 0x74, 0x53, 0x65, 0x74, 0x49, 0x74, 0x65, 0x6d,
  0x32, 0x34, 0x00, 0x00, 0x00, 0xbb, 0xff, 0xff, 0x02, 0xde, 0xff, 0xff,
  0x06, 0x00, 0x00, 0x00, 0x10, 0x00, 0x00, 0x00, 0x04, 0x00, 0x00, 0x00,
  0x01, 0x00, 0x00, 0x00, 0x24, 0x00, 0x00, 0x00, 0x01, 0x00, 0x00, 0x00,
  0x23, 0x00, 0x00, 0x00, 0xce, 0xc0, 0xff, 0xff, 0x00, 0x00, 0x00, 0x02,
  0x10, 0x00, 0x00, 0x00, 0xa7, 0x00, 0x00, 0x00, 0x0c, 0x00, 0x00, 0x00,
  0x34, 0x00, 0x00, 0x00, 0x00, 0x00, 0x00, 0x00, 0x26, 0x00, 0x00, 0x00,
  0x54, 0x65, 0x6e, 0x73, 0x6f, 0x72, 0x41, 0x72, 0x72, 0x61, 0x79, 0x56,
  0x32, 0x57, 0x72, 0x69, 0x74, 0x65, 0x2f, 0x54, 0x65, 0x6e, 0x73, 0x6f,
  0x72, 0x4c, 0x69, 0x73, 0x74, 0x53, 0x65, 0x74, 0x49, 0x74, 0x65, 0x6d,
  0x32, 0x33, 0x00, 0x00, 0x6c, 0xbb, 0xff, 0xff, 0xce, 0xd5, 0xff, 0xff,
  0x00, 0x00, 0x00, 0x15, 0x0d, 0x00, 0x00, 0x00, 0x18, 0x00, 0x00, 0x00,
  0x0c, 0x00, 0x00, 0x00, 0x04, 0x00, 0x00, 0x00, 0x88, 0xbb, 0xff, 0xff,
  0x01, 0x00, 0x00, 0x00, 0x23, 0x00, 0x00, 0x00, 0x02, 0x00, 0x00, 0x00,
  0x1e, 0x00, 0x00, 0x00, 0x22, 0x00, 0x00, 0x00, 0xea, 0xbb, 0xff, 0xff,
  0x10, 0x00, 0x00, 0x00, 0xa6, 0x00, 0x00, 0x00, 0x0c, 0x00, 0x00, 0x00,
  0x14, 0x00, 0x00, 0x00, 0x00, 0x00, 0x00, 0x00, 0x06, 0x00, 0x00, 0x00,
  0x6d, 0x75, 0x6c, 0x5f, 0x32, 0x31, 0x00, 0x00, 0xc4, 0xbb, 0xff, 0xff,
  0xc6, 0xde, 0xff, 0xff, 0x0e, 0x00, 0x00, 0x00, 0x10, 0x00, 0x00, 0x00,
  0x04, 0x00, 0x00, 0x00, 0x01, 0x00, 0x00, 0x00, 0x22, 0x00, 0x00, 0x00,
  0x01, 0x00, 0x00, 0x00, 0x21, 0x00, 0x00, 0x00, 0x32, 0xbc, 0xff, 0xff,
  0x10, 0x00, 0x00, 0x00, 0xa5, 0x00, 0x00, 0x00, 0x0c, 0x00, 0x00, 0x00,
  0x14, 0x00, 0x00, 0x00, 0x00, 0x00, 0x00, 0x00, 0x07, 0x00, 0x00, 0x00,
  0x54, 0x61, 0x6e, 0x68, 0x5f, 0x31, 0x31, 0x00, 0x0c, 0xbc, 0xff, 0xff,
  0x6e, 0xd6, 0xff, 0xff, 0x00, 0x00, 0x00, 0x0b, 0x05, 0x00, 0x00, 0x00,
  0x18, 0x00, 0x00, 0x00, 0x0c, 0x00, 0x00, 0x00, 0x04, 0x00, 0x00, 0x00,
  0x28, 0xbc, 0xff, 0xff, 0x01, 0x00, 0x00, 0x00, 0x21, 0x00, 0x00, 0x00,
  0x02, 0x00, 0x00, 0x00, 0x1d, 0x00, 0x00, 0x00, 0x20, 0x00, 0x00, 0x00,
  0x8a, 0xbc, 0xff, 0xff, 0x10, 0x00, 0x00, 0x00, 0xa4, 0x00, 0x00, 0x00,
  0x0c, 0x00, 0x00, 0x00, 0x14, 0x00, 0x00, 0x00, 0x00, 0x00, 0x00, 0x00,
  0x06, 0x00, 0x00, 0x00, 0x61, 0x64, 0x64, 0x5f, 0x31, 0x31, 0x00, 0x00,
  0x64, 0xbc, 0xff, 0xff, 0xc6, 0xd6, 0xff, 0xff, 0x00, 0x00, 0x00, 0x15,
  0x0d, 0x00, 0x00, 0x00, 0x18, 0x00, 0x00, 0x00, 0x0c, 0x00, 0x00, 0x00,
  0x04, 0x00, 0x00, 0x00, 0x80, 0xbc, 0xff, 0xff, 0x01, 0x00, 0x00, 0x00,
  0x20, 0x00, 0x00, 0x00, 0x02, 0x00, 0x00, 0x00, 0x1b, 0x00, 0x00, 0x00,
  0x1f, 0x00, 0x00, 0x00, 0xe2, 0xbc, 0xff, 0xff, 0x10, 0x00, 0x00, 0x00,
  0xa3, 0x00, 0x00, 0x00, 0x0c, 0x00, 0x00, 0x00, 0x14, 0x00, 0x00, 0x00,
  0x00, 0x00, 0x00, 0x00, 0x06, 0x00, 0x00, 0x00, 0x6d, 0x75, 0x6c, 0x5f,
  0x31, 0x31, 0x00, 0x00, 0xbc, 0xbc, 0xff, 0xff, 0xbe, 0xdf, 0xff, 0xff,
  0x0e, 0x00, 0x00, 0x00, 0x10, 0x00, 0x00, 0x00, 0x04, 0x00, 0x00, 0x00,
  0x01, 0x00, 0x00, 0x00, 0x1f, 0x00, 0x00, 0x00, 0x01, 0x00, 0x00, 0x00,
  0x19, 0x00, 0x00, 0x00, 0x2a, 0xbd, 0xff, 0xff, 0x10, 0x00, 0x00, 0x00,
  0xa2, 0x00, 0x00, 0x00, 0x0c, 0x00, 0x00, 0x00, 0x14, 0x00, 0x00, 0x00,
  0x00, 0x00, 0x00, 0x00, 0x05, 0x00, 0x00, 0x00, 0x54, 0x61, 0x6e, 0x68,
  0x31, 0x00, 0x00, 0x00, 0x04, 0xbd, 0xff, 0xff, 0x06, 0xe0, 0xff, 0xff,
  0x0c, 0x00, 0x00, 0x00, 0x10, 0x00, 0x00, 0x00, 0x04, 0x00, 0x00, 0x00,
  0x01, 0x00, 0x00, 0x00, 0x1e, 0x00, 0x00, 0x00, 0x01, 0x00, 0x00, 0x00,
  0x1a, 0x00, 0x00, 0x00, 0x72, 0xbd, 0xff, 0xff, 0x10, 0x00, 0x00, 0x00,
  0xa1, 0x00, 0x00, 0x00, 0x0c, 0x00, 0x00, 0x00, 0x18, 0x00, 0x00, 0x00,
  0x00, 0x00, 0x00, 0x00, 0x0a, 0x00, 0x00, 0x00, 0x53, 0x69, 0x67, 0x6d,
  0x6f, 0x69, 0x64, 0x5f, 0x32, 0x31, 0x00, 0x00, 0x50, 0xbd, 0xff, 0xff,
  0xb2, 0xd7, 0xff, 0xff, 0x00, 0x00, 0x00, 0x15, 0x0d, 0x00, 0x00, 0x00,
  0x18, 0x00, 0x00, 0x00, 0x0c, 0x00, 0x00, 0x00, 0x04, 0x00, 0x00, 0x00,
  0x6c, 0xbd, 0xff, 0xff, 0x01, 0x00, 0x00, 0x00, 0x1d, 0x00, 0x00, 0x00,
  0x02, 0x00, 0x00, 0x00, 0x1c, 0x00, 0x00, 0x00, 0x04, 0x00, 0x00, 0x00,
  0xce, 0xbd, 0xff, 0xff, 0x10, 0x00, 0x00, 0x00, 0xa0, 0x00, 0x00, 0x00,
  0x0c, 0x00, 0x00, 0x00, 0x14, 0x00, 0x00, 0x00, 0x00, 0x00, 0x00, 0x00,
  0x04, 0x00, 0x00, 0x00, 0x6d, 0x75, 0x6c, 0x31, 0x00, 0x00, 0x00, 0x00,
  0xa8, 0xbd, 0xff, 0xff, 0xaa, 0xe0, 0xff, 0xff, 0x0c, 0x00, 0x00, 0x00,
  0x10, 0x00, 0x00, 0x00, 0x04, 0x00, 0x00, 0x00, 0x01, 0x00, 0x00, 0x00,
  0x1c, 0x00, 0x00, 0x00, 0x01, 0x00, 0x00, 0x00, 0x18, 0x00, 0x00, 0x00,
  0x16, 0xbe, 0xff, 0xff, 0x10, 0x00, 0x00, 0x00, 0x9f, 0x00, 0x00, 0x00,
  0x0c, 0x00, 0x00, 0x00, 0x18, 0x00, 0x00, 0x00, 0x00, 0x00, 0x00, 0x00,
  0x0a, 0x00, 0x00, 0x00, 0x53, 0x69, 0x67, 0x6d, 0x6f, 0x69, 0x64, 0x5f,
  0x31, 0x31, 0x00, 0x00, 0xf4, 0xbd, 0xff, 0xff, 0xf6, 0xe0, 0xff, 0xff,
  0x0c, 0x00, 0x00, 0x00, 0x10, 0x00, 0x00, 0x00, 0x04, 0x00, 0x00, 0x00,
  0x01, 0x00, 0x00, 0x00, 0x1b, 0x00, 0x00, 0x00, 0x01, 0x00, 0x00, 0x00,
  0x17, 0x00, 0x00, 0x00, 0x62, 0xbe, 0xff, 0xff, 0x10, 0x00, 0x00, 0x00,
  0x9e, 0x00, 0x00, 0x00, 0x0c, 0x00, 0x00, 0x00, 0x18, 0x00, 0x00, 0x00,
  0x00, 0x00, 0x00, 0x00, 0x08, 0x00, 0x00, 0x00, 0x53, 0x69, 0x67, 0x6d,
  0x6f, 0x69, 0x64, 0x31, 0x00, 0x00, 0x00, 0x00, 0x40, 0xbe, 0xff, 0xff,
  0xa2, 0xd8, 0xff, 0xff, 0x00, 0x00, 0x00, 0x23, 0x0b, 0x00, 0x00, 0x00,
  0x28, 0x00, 0x00, 0x00, 0x10, 0x00, 0x00, 0x00, 0x04, 0x00, 0x00, 0x00,
  0x52, 0xbf, 0xff, 0xff, 0x04, 0x00, 0x00, 0x00, 0x04, 0x00, 0x00, 0x00,
  0x17, 0x00, 0x00, 0x00, 0x18, 0x00, 0x00, 0x00, 0x19, 0x00, 0x00, 0x00,
  0x1a, 0x00, 0x00, 0x00, 0x02, 0x00, 0x00, 0x00, 0x07, 0x00, 0x00, 0x00,
  0x16, 0x00, 0x00, 0x00, 0xce, 0xbe, 0xff, 0xff, 0x10, 0x00, 0x00, 0x00,
  0x9d, 0x00, 0x00, 0x00, 0x0c, 0x00, 0x00, 0x00, 0x14, 0x00, 0x00, 0x00,
  0x00, 0x00, 0x00, 0x00, 0x06, 0x00, 0x00, 0x00, 0x73, 0x70, 0x6c, 0x69,
  0x74, 0x37, 0x00, 0x00, 0xa8, 0xbe, 0xff, 0xff, 0xf6, 0xbe, 0xff, 0xff,
  0x10, 0x00, 0x00, 0x00, 0x9c, 0x00, 0x00, 0x00, 0x0c, 0x00, 0x00, 0x00,
  0x14, 0x00, 0x00, 0x00, 0x00, 0x00, 0x00, 0x00, 0x06, 0x00, 0x00, 0x00,
  0x73, 0x70, 0x6c, 0x69, 0x74, 0x36, 0x00, 0x00, 0xd0, 0xbe, 0xff, 0xff,
  0x1e, 0xbf, 0xff, 0xff, 0x10, 0x00, 0x00, 0x00, 0x9b, 0x00, 0x00, 0x00,
  0x0c, 0x00, 0x00, 0x00, 0x14, 0x00, 0x00, 0x00, 0x00, 0x00, 0x00, 0x00,
  0x06, 0x00, 0x00, 0x00, 0x73, 0x70, 0x6c, 0x69, 0x74, 0x35, 0x00, 0x00,
  0xf8, 0xbe, 0xff, 0xff, 0x46, 0xbf, 0xff, 0xff, 0x10, 0x00, 0x00, 0x00,
  0x9a, 0x00, 0x00, 0x00, 0x0c, 0x00, 0x00, 0x00, 0x14, 0x00, 0x00, 0x00,
  0x00, 0x00, 0x00, 0x00, 0x06, 0x00, 0x00, 0x00, 0x73, 0x70, 0x6c, 0x69,
  0x74, 0x34, 0x00, 0x00, 0x20, 0xbf, 0xff, 0xff, 0x82, 0xd9, 0xff, 0xff,
  0x00, 0x00, 0x00, 0x0b, 0x05, 0x00, 0x00, 0x00, 0x18, 0x00, 0x00, 0x00,
  0x0c, 0x00, 0x00, 0x00, 0x04, 0x00, 0x00, 0x00, 0x3c, 0xbf, 0xff, 0xff,
  0x01, 0x00, 0x00, 0x00, 0x16, 0x00, 0x00, 0x00, 0x02, 0x00, 0x00, 0x00,
  0x15, 0x00, 0x00, 0x00, 0x0b, 0x00, 0x00, 0x00, 0x9e, 0xbf, 0xff, 0xff,
  0x10, 0x00, 0x00, 0x00, 0x99, 0x00, 0x00, 0x00, 0x0c, 0x00, 0x00, 0x00,
  0x18, 0x00, 0x00, 0x00, 0x00, 0x00, 0x00, 0x00, 0x08, 0x00, 0x00, 0x00,
  0x42, 0x69, 0x61, 0x73, 0x41, 0x64, 0x64, 0x31, 0x00, 0x00, 0x00, 0x00,
  0x7c, 0xbf, 0xff, 0xff, 0xde, 0xd9, 0xff, 0xff, 0x00, 0x00, 0x00, 0x0b,
  0x05, 0x00, 0x00, 0x00, 0x18, 0x00, 0x00, 0x00, 0x0c, 0x00, 0x00, 0x00,
  0x04, 0x00, 0x00, 0x00, 0x98, 0xbf, 0xff, 0xff, 0x01, 0x00, 0x00, 0x00,
  0x15, 0x00, 0x00, 0x00, 0x02, 0x00, 0x00, 0x00, 0x14, 0x00, 0x00, 0x00,
  0x12, 0x00, 0x00, 0x00, 0xfa, 0xbf, 0xff, 0xff, 0x10, 0x00, 0x00, 0x00,
  0x98, 0x00, 0x00, 0x00, 0x0c, 0x00, 0x00, 0x00, 0x14, 0x00, 0x00, 0x00,
  0x00, 0x00, 0x00, 0x00, 0x04, 0x00, 0x00, 0x00, 0x61, 0x64, 0x64, 0x31,
  0x00, 0x00, 0x00, 0x00, 0xd4, 0xbf, 0xff, 0xff, 0x36, 0xda, 0xff, 0xff,
  0x00, 0x00, 0x00, 0x08, 0x04, 0x00, 0x00, 0x00, 0x18, 0x00, 0x00, 0x00,
  0x0c, 0x00, 0x00, 0x00, 0x04, 0x00, 0x00, 0x00, 0xf0, 0xbf, 0xff, 0xff,
  0x01, 0x00, 0x00, 0x00, 0x14, 0x00, 0x00, 0x00, 0x03, 0x00, 0x00, 0x00,
  0x13, 0x00, 0x00, 0x00, 0x0a, 0x00, 0x00, 0x00, 0xff, 0xff, 0xff, 0xff,
  0x56, 0xc0, 0xff, 0xff, 0x10, 0x00, 0x00, 0x00, 0x97, 0x00, 0x00, 0x00,
  0x0c, 0x00, 0x00, 0x00, 0x18, 0x00, 0x00, 0x00, 0x00, 0x00, 0x00, 0x00,
  0x08, 0x00, 0x00, 0x00, 0x4d, 0x61, 0x74, 0x4d, 0x75, 0x6c, 0x31, 0x30,
  0x00, 0x00, 0x00, 0x00, 0x34, 0xc0, 0xff, 0xff, 0x96, 0xda, 0xff, 0xff,
  0x00, 0x00, 0x00, 0x17, 0x0a, 0x00, 0x00, 0x00, 0x18, 0x00, 0x00, 0x00,
  0x0c, 0x00, 0x00, 0x00, 0x04, 0x00, 0x00, 0x00, 0x50, 0xc0, 0xff, 0xff,
  0x01, 0x00, 0x00, 0x00, 0x13, 0x00, 0x00, 0x00, 0x02, 0x00, 0x00, 0x00,
  0x09, 0x00, 0x00, 0x00, 0x01, 0x00, 0x00, 0x00, 0xb2, 0xc0, 0xff, 0xff,
  0x10, 0x00, 0x00, 0x00, 0x96, 0x00, 0x00, 0x00, 0x0c, 0x00, 0x00, 0x00,
  0x34, 0x00, 0x00, 0x00, 0x00, 0x00, 0x00, 0x00, 0x24, 0x00, 0x00, 0x00,
  0x54, 0x65, 0x6e, 0x73, 0x6f, 0x72, 0x41, 0x72, 0x72, 0x61, 0x79, 0x56,
  0x32, 0x52, 0x65, 0x61, 0x64, 0x2f, 0x54, 0x65, 0x6e, 0x73, 0x6f, 0x72,
  0x4c, 0x69, 0x73, 0x74, 0x47, 0x65, 0x74, 0x49, 0x74, 0x65, 0x6d, 0x31,
  0x00, 0x00, 0x00, 0x00, 0xac, 0xc0, 0xff, 0xff, 0x0e, 0xdb, 0xff, 0xff,
  0x00, 0x00, 0x00, 0x08, 0x04, 0x00, 0x00, 0x00, 0x18, 0x00, 0x00, 0x00,
  0x0c, 0x00, 0x00, 0x00, 0x04, 0x00, 0x00, 0x00, 0xc8, 0xc0, 0xff, 0xff,
  0x01, 0x00, 0x00, 0x00, 0x12, 0x00, 0x00, 0x00, 0x03, 0x00, 0x00, 0x00,
  0x03, 0x00, 0x00, 0x00, 0x08, 0x00, 0x00, 0x00, 0xff, 0xff, 0xff, 0xff,
  0x2e, 0xc1, 0xff, 0xff, 0x10, 0x00, 0x00, 0x00, 0x95, 0x00, 0x00, 0x00,
  0x0c, 0x00, 0x00, 0x00, 0x18, 0x00, 0x00, 0x00, 0x00, 0x00, 0x00, 0x00,
  0x09, 0x00, 0x00, 0x00, 0x4d, 0x61, 0x74, 0x4d, 0x75, 0x6c, 0x5f, 0x31,
  0x36, 0x00, 0x00, 0x00, 0x0c, 0xc1, 0xff, 0xff, 0x6e, 0xdb, 0xff, 0xff,
  0x00, 0x00, 0x00, 0x0b, 0x05, 0x00, 0x00, 0x00, 0x18, 0x00, 0x00, 0x00,
  0x0c, 0x00, 0x00, 0x00, 0x04, 0x00, 0x00, 0x00, 0x28, 0xc1, 0xff, 0xff,
  0x01, 0x00, 0x00, 0x00, 0x11, 0x00, 0x00, 0x00, 0x02, 0x00, 0x00, 0x00,
  0x01, 0x00, 0x00, 0x00, 0x07, 0x00, 0x00, 0x00, 0xea, 0xc6, 0xff, 0xff,
  0x00, 0x00, 0x00, 0x02, 0x10, 0x00, 0x00, 0x00, 0x94, 0x00, 0x00, 0x00,
  0x0c, 0x00, 0x00, 0x00, 0x14, 0x00, 0x00, 0x00, 0x00, 0x00, 0x00, 0x00,
  0x06, 0x00, 0x00, 0x00, 0x61, 0x64, 0x64, 0x5f, 0x32, 0x31, 0x00, 0x00,
  0x68, 0xc1, 0xff, 0xff, 0x16, 0xc7, 0xff, 0xff, 0x00, 0x00, 0x00, 0x02,
  0x10, 0x00, 0x00, 0x00, 0x93, 0x00, 0x00, 0x00, 0x10, 0x00, 0x00, 0x00,
  0x18, 0x00, 0x00, 0x00, 0x01, 0x00, 0x00, 0x00, 0x01, 0x00, 0x00, 0x00,
  0x05, 0x00, 0x00, 0x00, 0x61, 0x72, 0x67, 0x31, 0x36, 0x00, 0x00, 0x00,
  0x98, 0xc1, 0xff, 0xff, 0x46, 0xc7, 0xff, 0xff, 0x00, 0x00, 0x00, 0x02,
  0x10, 0x00, 0x00, 0x00, 0x92, 0x00, 0x00, 0x00, 0x0c, 0x00, 0x00, 0x00,
  0x14, 0x00, 0x00, 0x00, 0x00, 0x00, 0x00, 0x00, 0x05, 0x00, 0x00, 0x00,
  0x61, 0x72, 0x67, 0x31, 0x35, 0x00, 0x00, 0x00, 0xc4, 0xc1, 0xff, 0xff,
  0x72, 0xc7, 0xff, 0xff, 0x00, 0x00, 0x00, 0x02, 0x10, 0x00, 0x00, 0x00,
  0x91, 0x00, 0x00, 0x00, 0x10, 0x00, 0x00, 0x00, 0x18, 0x00, 0x00, 0x00,
  0x01, 0x00, 0x00, 0x00, 0x01, 0x00, 0x00, 0x00, 0x05, 0x00, 0x00, 0x00,
  0x61, 0x72, 0x67, 0x31, 0x34, 0x00, 0x00, 0x00, 0xf4, 0xc1, 0xff, 0xff,
  0xa2, 0xc7, 0xff, 0xff, 0x00, 0x00, 0x00, 0x02, 0x10, 0x00, 0x00, 0x00,
  0x90, 0x00, 0x00, 0x00, 0x0c, 0x00, 0x00, 0x00, 0x14, 0x00, 0x00, 0x00,
  0x00, 0x00, 0x00, 0x00, 0x05, 0x00, 0x00, 0x00, 0x61, 0x72, 0x67, 0x31,
  0x33, 0x00, 0x00, 0x00, 0x20, 0xc2, 0xff, 0xff, 0xce, 0xc7, 0xff, 0xff,
  0x00, 0x00, 0x00, 0x02, 0x10, 0x00, 0x00, 0x00, 0x8f, 0x00, 0x00, 0x00,
  0x10, 0x00, 0x00, 0x00, 0x18, 0x00, 0x00, 0x00, 0x01, 0x00, 0x00, 0x00,
  0x01, 0x00, 0x00, 0x00, 0x05, 0x00, 0x00, 0x00, 0x61, 0x72, 0x67, 0x31,
  0x32, 0x00, 0x00, 0x00, 0x50, 0xc2, 0xff, 0xff, 0x9e, 0xc2, 0xff, 0xff,
  0x10, 0x00, 0x00, 0x00, 0x8e, 0x00, 0x00, 0x00, 0x10, 0x00, 0x00, 0x00,
  0x18, 0x00, 0x00, 0x00, 0x01, 0x00, 0x00, 0x00, 0x20, 0x00, 0x00, 0x00,
  0x05, 0x00, 0x00, 0x00, 0x61, 0x72, 0x67, 0x31, 0x31, 0x00, 0x00, 0x00,
  0x7c, 0xc2, 0xff, 0xff, 0xca, 0xc2, 0xff, 0xff, 0x10, 0x00, 0x00, 0x00,
  0x8d, 0x00, 0x00, 0x00, 0x14, 0x00, 0x00, 0x00, 0x1c, 0x00, 0x00, 0x00,
  0x02, 0x00, 0x00, 0x00, 0x20, 0x00, 0x00, 0x00, 0x01, 0x00, 0x00, 0x00,
  0x05, 0x00, 0x00, 0x00, 0x61, 0x72, 0x67, 0x31, 0x30, 0x00, 0x00, 0x00,
  0xac, 0xc2, 0xff, 0xff, 0xfa, 0xc2, 0xff, 0xff, 0x10, 0x00, 0x00, 0x00,
  0x8c, 0x00, 0x00, 0x00, 0x18, 0x00, 0x00, 0x00, 0x20, 0x00, 0x00, 0x00,
  0x03, 0x00, 0x00, 0x00, 0x14, 0x00, 0x00, 0x00, 0x01, 0x00, 0x00, 0x00,
  0x01, 0x00, 0x00, 0x00, 0x04, 0x00, 0x00, 0x00, 0x61, 0x72, 0x67, 0x39,
  0x00, 0x00, 0x00, 0x00, 0xe0, 0xc2, 0xff, 0xff, 0x2e, 0xc3, 0xff, 0xff,
  0x10, 0x00, 0x00, 0x00, 0x8b, 0x00, 0x00, 0x00, 0x14, 0x00, 0x00, 0x00,
  0x1c, 0x00, 0x00, 0x00, 0x02, 0x00, 0x00, 0x00, 0x20, 0x00, 0x00, 0x00,
  0x08, 0x00, 0x00, 0x00, 0x04, 0x00, 0x00, 0x00, 0x61, 0x72, 0x67, 0x38,
  0x00, 0x00, 0x00, 0x00, 0x10, 0xc3, 0xff, 0xff, 0xbe, 0xc8, 0xff, 0xff,
  0x00, 0x00, 0x00, 0x02, 0x10, 0x00, 0x00, 0x00, 0x8a, 0x00, 0x00, 0x00,
  0x0c, 0x00, 0x00, 0x00, 0x14, 0x00, 0x00, 0x00, 0x00, 0x00, 0x00, 0x00,
  0x04, 0x00, 0x00, 0x00, 0x61, 0x72, 0x67, 0x37, 0x00, 0x00, 0x00, 0x00,
  0x3c, 0xc3, 0xff, 0xff, 0xea, 0xc8, 0xff, 0xff, 0x00, 0x00, 0x00, 0x02,
  0x10, 0x00, 0x00, 0x00, 0x89, 0x00, 0x00, 0x00, 0x0c, 0x00, 0x00, 0x00,
  0x14, 0x00, 0x00, 0x00, 0x00, 0x00, 0x00, 0x00, 0x04, 0x00, 0x00, 0x00,
  0x61, 0x72, 0x67, 0x36, 0x00, 0x00, 0x00, 0x00, 0x68, 0xc3, 0xff, 0xff,
  0xb6, 0xc3, 0xff, 0xff, 0x10, 0x00, 0x00, 0x00, 0x88, 0x00, 0x00, 0x00,
  0x0c, 0x00, 0x00, 0x00, 0x14, 0x00, 0x00, 0x00, 0x00, 0x00, 0x00, 0x00,
  0x04, 0x00, 0x00, 0x00, 0x61, 0x72, 0x67, 0x35, 0x00, 0x00, 0x00, 0x00,
  0x90, 0xc3, 0xff, 0xff, 0xde, 0xc3, 0xff, 0xff, 0x10, 0x00, 0x00, 0x00,
  0x87, 0x00, 0x00, 0x00, 0x0c, 0x00, 0x00, 0x00, 0x14, 0x00, 0x00, 0x00,
  0x00, 0x00, 0x00, 0x00, 0x04, 0x00, 0x00, 0x00, 0x61, 0x72, 0x67, 0x34,
  0x00, 0x00, 0x00, 0x00, 0xb8, 0xc3, 0xff, 0xff, 0x06, 0xc4, 0xff, 0xff,
  0x10, 0x00, 0x00, 0x00, 0x86, 0x00, 0x00, 0x00, 0x0c, 0x00, 0x00, 0x00,
  0x14, 0x00, 0x00, 0x00, 0x00, 0x00, 0x00, 0x00, 0x04, 0x00, 0x00, 0x00,
  0x61, 0x72, 0x67, 0x33, 0x00, 0x00, 0x00, 0x00, 0xe0, 0xc3, 0xff, 0xff,
  0x2e, 0xc4, 0xff, 0xff, 0x10, 0x00, 0x00, 0x00, 0x85, 0x00, 0x00, 0x00,
  0x0c, 0x00, 0x00, 0x00, 0x14, 0x00, 0x00, 0x00, 0x00, 0x00, 0x00, 0x00,
  0x04, 0x00, 0x00, 0x00, 0x61, 0x72, 0x67, 0x32, 0x00, 0x00, 0x00, 0x00,
  0x08, 0xc4, 0xff, 0xff, 0xb6, 0xc9, 0xff, 0xff, 0x00, 0x00, 0x00, 0x02,
  0x10, 0x00, 0x00, 0x00, 0x84, 0x00, 0x00, 0x00, 0x0c, 0x00, 0x00, 0x00,
  0x14, 0x00, 0x00, 0x00, 0x00, 0x00, 0x00, 0x00, 0x04, 0x00, 0x00, 0x00,
  0x61, 0x72, 0x67, 0x31, 0x00, 0x00, 0x00, 0x00, 0x34, 0xc4, 0xff, 0xff,
  0xe2, 0xc9, 0xff, 0xff, 0x00, 0x00, 0x00, 0x02, 0x10, 0x00, 0x00, 0x00,
  0x83, 0x00, 0x00, 0x00, 0x0c, 0x00, 0x00, 0x00, 0x14, 0x00, 0x00, 0x00,
  0x00, 0x00, 0x00, 0x00, 0x04, 0x00, 0x00, 0x00, 0x61, 0x72, 0x67, 0x30,
  0x00, 0x00, 0x00, 0x00, 0x60, 0xc4, 0xff, 0xff, 0xee, 0xe2, 0xff, 0xff,
  0x14, 0x00, 0x00, 0x00, 0x5c, 0x00, 0x00, 0x00, 0xa0, 0x00, 0x00, 0x00,
  0xa4, 0x00, 0x00, 0x00, 0xa8, 0x00, 0x00, 0x00, 0x12, 0x00, 0x00, 0x00,
  0x18, 0x04, 0x00, 0x00, 0xe8, 0x03, 0x00, 0x00, 0xbc, 0x03, 0x00, 0x00,
  0x90, 0x03, 0x00, 0x00, 0x64, 0x03, 0x00, 0x00, 0x38, 0x03, 0x00, 0x00,
  0x08, 0x03, 0x00, 0x00, 0xd8, 0x02, 0x00, 0x00, 0xa4, 0x02, 0x00, 0x00,
  0x6c, 0x02, 0x00, 0x00, 0x38, 0x02, 0x00, 0x00, 0x08, 0x02, 0x00, 0x00,
  0xd4, 0x01, 0x00, 0x00, 0xa4, 0x01, 0x00, 0x00, 0x70, 0x01, 0x00, 0x00,
  0x40, 0x01, 0x00, 0x00, 0x0c, 0x01, 0x00, 0x00, 0xdc, 0x00, 0x00, 0x00,
  0x11, 0x00, 0x00, 0x00, 0x00, 0x00, 0x00, 0x00, 0x01, 0x00, 0x00, 0x00,
  0x02, 0x00, 0x00, 0x00, 0x03, 0x00, 0x00, 0x00, 0x04, 0x00, 0x00, 0x00,
  0x05, 0x00, 0x00, 0x00, 0x06, 0x00, 0x00, 0x00, 0x07, 0x00, 0x00, 0x00,
  0x08, 0x00, 0x00, 0x00, 0x09, 0x00, 0x00, 0x00, 0x0a, 0x00, 0x00, 0x00,
  0x0b, 0x00, 0x00, 0x00, 0x0c, 0x00, 0x00, 0x00, 0x0d, 0x00, 0x00, 0x00,
  0x0e, 0x00, 0x00, 0x00, 0x0f, 0x00, 0x00, 0x00, 0x10, 0x00, 0x00, 0x00,
  0x01, 0x00, 0x00, 0x00, 0x11, 0x00, 0x00, 0x00, 0x01, 0x00, 0x00, 0x00,
  0x60, 0x00, 0x00, 0x00, 0x54, 0x00, 0x00, 0x00, 0x77, 0x68, 0x69, 0x6c,
  0x65, 0x3b, 0x53, 0x74, 0x61, 0x74, 0x65, 0x66, 0x75, 0x6c, 0x50, 0x61,
  0x72, 0x74, 0x69, 0x74, 0x69, 0x6f, 0x6e, 0x65, 0x64, 0x43, 0x61, 0x6c,
  0x6c, 0x2f, 0x73, 0x65, 0x71, 0x75, 0x65, 0x6e, 0x74, 0x69, 0x61, 0x6c,
  0x5f, 0x33, 0x2f, 0x6c, 0x73, 0x74, 0x6d, 0x5f, 0x33, 0x2f, 0x53, 0x74,
  0x61, 0x74, 0x65, 0x66, 0x75, 0x6c, 0x50, 0x61, 0x72, 0x74, 0x69, 0x74,
  0x69, 0x6f, 0x6e, 0x65, 0x64, 0x43, 0x61, 0x6c, 0x6c, 0x2f, 0x77, 0x68,
  0x69, 0x6c, 0x65, 0x5f, 0x63, 0x6f, 0x6e, 0x64, 0x00, 0x00, 0x00, 0x00,
  0x7a, 0xe8, 0xff, 0xff, 0x13, 0x00, 0x00, 0x00, 0x10, 0x00, 0x00, 0x00,
  0x04, 0x00, 0x00, 0x00, 0x01, 0x00, 0x00, 0x00, 0x11, 0x00, 0x00, 0x00,
  0x02, 0x00, 0x00, 0x00, 0x01, 0x00, 0x00, 0x00, 0x06, 0x00, 0x00, 0x00,
  0x4a, 0xcb, 0xff, 0xff, 0x00, 0x00, 0x00, 0x06, 0x10, 0x00, 0x00, 0x00,
  0x82, 0x00, 0x00, 0x00, 0x0c, 0x00, 0x00, 0x00, 0x14, 0x00, 0x00, 0x00,
  0x00, 0x00, 0x00, 0x00, 0x05, 0x00, 0x00, 0x00, 0x4c, 0x65, 0x73, 0x73,
  0x31, 0x00, 0x00, 0x00, 0xc8, 0xc5, 0xff, 0xff, 0x76, 0xcb, 0xff, 0xff,
  0x00, 0x00, 0x00, 0x02, 0x10, 0x00, 0x00, 0x00, 0x81, 0x00, 0x00, 0x00,
  0x10, 0x00, 0x00, 0x00, 0x18, 0x00, 0x00, 0x00, 0x01, 0x00, 0x00, 0x00,
  0x01, 0x00, 0x00, 0x00, 0x05, 0x00, 0x00, 0x00, 0x61, 0x72, 0x67, 0x31,
  0x36, 0x00, 0x00, 0x00, 0xf8, 0xc5, 0xff, 0xff, 0xa6, 0xcb, 0xff, 0xff,
  0x00, 0x00, 0x00, 0x02, 0x10, 0x00, 0x00, 0x00, 0x80, 0x00, 0x00, 0x00,
  0x0c, 0x00, 0x00, 0x00, 0x14, 0x00, 0x00, 0x00, 0x00, 0x00, 0x00, 0x00,
  0x05, 0x00, 0x00, 0x00, 0x61, 0x72, 0x67, 0x31, 0x35, 0x00, 0x00, 0x00,
  0x24, 0xc6, 0xff, 0xff, 0xd2, 0xcb, 0xff, 0xff, 0x00, 0x00, 0x00, 0x02,
  0x10, 0x00, 0x00, 0x00, 0x7f, 0x00, 0x00, 0x00, 0x10, 0x00, 0x00, 0x00,
  0x18, 0x00, 0x00, 0x00, 0x01, 0x00, 0x00, 0x00, 0x01, 0x00, 0x00, 0x00,
  0x05, 0x00, 0x00, 0x00, 0x61, 0x72, 0x67, 0x31, 0x34, 0x00, 0x00, 0x00,
  0x54, 0xc6, 0xff, 0xff, 0x02, 0xcc, 0xff, 0xff, 0x00, 0x00, 0x00, 0x02,
  0x10, 0x00, 0x00, 0x00, 0x7e, 0x00, 0x00, 0x00, 0x0c, 0x00, 0x00, 0x00,
  0x14, 0x00, 0x00, 0x00, 0x00, 0x00, 0x00, 0x00, 0x05, 0x00, 0x00, 0x00,
  0x61, 0x72, 0x67, 0x31, 0x33, 0x00, 0x00, 0x00, 0x80, 0xc6, 0xff, 0xff,
  0x2e, 0xcc, 0xff, 0xff, 0x00, 0x00, 0x00, 0x02, 0x10, 0x00, 0x00, 0x00,
  0x7d, 0x00, 0x00, 0x00, 0x10, 0x00, 0x00, 0x00, 0x18, 0x00, 0x00, 0x00,
  0x01, 0x00, 0x00, 0x00, 0x01, 0x00, 0x00, 0x00, 0x05, 0x00, 0x00, 0x00,
  0x61, 0x72, 0x67, 0x31, 0x32, 0x00, 0x00, 0x00, 0xb0, 0xc6, 0xff, 0xff,
  0xfe, 0xc6, 0xff, 0xff, 0x10, 0x00, 0x00, 0x00, 0x7c, 0x00, 0x00, 0x00,
  0x10, 0x00, 0x00, 0x00, 0x18, 0x00, 0x00, 0x00, 0x01, 0x00, 0x00, 0x00,
  0x20, 0x00, 0x00, 0x00, 0x05, 0x00, 0x00, 0x00, 0x61, 0x72, 0x67, 0x31,
  0x31, 0x00, 0x00, 0x00, 0xdc, 0xc6, 0xff, 0xff, 0x2a, 0xc7, 0xff, 0xff,
  0x10, 0x00, 0x00, 0x00, 0x7b, 0x00, 0x00, 0x00, 0x14, 0x00, 0x00, 0x00,
  0x1c, 0x00, 0x00, 0x00, 0x02, 0x00, 0x00, 0x00, 0x20, 0x00, 0x00, 0x00,
  0x01, 0x00, 0x00, 0x00, 0x05, 0x00, 0x00, 0x00, 0x61, 0x72, 0x67, 0x31,
  0x30, 0x00, 0x00, 0x00, 0x0c, 0xc7, 0xff, 0xff, 0x5a, 0xc7, 0xff, 0xff,
  0x10, 0x00, 0x00, 0x00, 0x7a, 0x00, 0x00, 0x00, 0x18, 0x00, 0x00, 0x00,
  0x20, 0x00, 0x00, 0x00, 0x03, 0x00, 0x00, 0x00, 0x14, 0x00, 0x00, 0x00,
  0x01, 0x00, 0x00, 0x00, 0x01, 0x00, 0x00, 0x00, 0x04, 0x00, 0x00, 0x00,
  0x61, 0x72, 0x67, 0x39, 0x00, 0x00, 0x00, 0x00, 0x40, 0xc7, 0xff, 0xff,
  0x8e, 0xc7, 0xff, 0xff, 0x10, 0x00, 0x00, 0x00, 0x79, 0x00, 0x00, 0x00,
  0x14, 0x00, 0x00, 0x00, 0x1c, 0x00, 0x00, 0x00, 0x02, 0x00, 0x00, 0x00,
  0x20, 0x00, 0x00, 0x00, 0x08, 0x00, 0x00, 0x00, 0x04, 0x00, 0x00, 0x00,
  0x61, 0x72, 0x67, 0x38, 0x00, 0x00, 0x00, 0x00, 0x70, 0xc7, 0xff, 0xff,
  0x1e, 0xcd, 0xff, 0xff, 0x00, 0x00, 0x00, 0x02, 0x10, 0x00, 0x00, 0x00,
  0x78, 0x00, 0x00, 0x00, 0x0c, 0x00, 0x00, 0x00, 0x14, 0x00, 0x00, 0x00,
  0x00, 0x00, 0x00, 0x00, 0x04, 0x00, 0x00, 0x00, 0x61, 0x72, 0x67, 0x37,
  0x00, 0x00, 0x00, 0x00, 0x9c, 0xc7, 0xff, 0xff, 0x4a, 0xcd, 0xff, 0xff,
  0x00, 0x00, 0x00, 0x02, 0x10, 0x00, 0x00, 0x00, 0x77, 0x00, 0x00, 0x00,
  0x0c, 0x00, 0x00, 0x00, 0x14, 0x00, 0x00, 0x00, 0x00, 0x00, 0x00, 0x00,
  0x04, 0x00, 0x00, 0x00, 0x61, 0x72, 0x67, 0x36, 0x00, 0x00, 0x00, 0x00,
  0xc8, 0xc7, 0xff, 0xff, 0x16, 0xc8, 0xff, 0xff, 0x10, 0x00, 0x00, 0x00,
  0x76, 0x00, 0x00, 0x00, 0x0c, 0x00, 0x00, 0x00, 0x14, 0x00, 0x00, 0x00,
  0x00, 0x00, 0x00, 0x00, 0x04, 0x00, 0x00, 0x00, 0x61, 0x72, 0x67, 0x35,
  0x00, 0x00, 0x00, 0x00, 0xf0, 0xc7, 0xff, 0xff, 0x3e, 0xc8, 0xff, 0xff,
  0x10, 0x00, 0x00, 0x00, 0x75, 0x00, 0x00, 0x00, 0x0c, 0x00, 0x00, 0x00,
  0x14, 0x00, 0x00, 0x00, 0x00, 0x00, 0x00, 0x00, 0x04, 0x00, 0x00, 0x00,
  0x61, 0x72, 0x67, 0x34, 0x00, 0x00, 0x00, 0x00, 0x18, 0xc8, 0xff, 0xff,
  0x66, 0xc8, 0xff, 0xff, 0x10, 0x00, 0x00, 0x00, 0x74, 0x00, 0x00, 0x00,
  0x0c, 0x00, 0x00, 0x00, 0x14, 0x00, 0x00, 0x00, 0x00, 0x00, 0x00, 0x00,
  0x04, 0x00, 0x00, 0x00, 0x61, 0x72, 0x67, 0x33, 0x00, 0x00, 0x00, 0x00,
  0x40, 0xc8, 0xff, 0xff, 0x8e, 0xc8, 0xff, 0xff, 0x10, 0x00, 0x00, 0x00,
  0x73, 0x00, 0x00, 0x00, 0x0c, 0x00, 0x00, 0x00, 0x14, 0x00, 0x00, 0x00,
  0x00, 0x00, 0x00, 0x00, 0x04, 0x00, 0x00, 0x00, 0x61, 0x72, 0x67, 0x32,
  0x00, 0x00, 0x00, 0x00, 0x68, 0xc8, 0xff, 0xff, 0x16, 0xce, 0xff, 0xff,
  0x00, 0x00, 0x00, 0x02, 0x10, 0x00, 0x00, 0x00, 0x72, 0x00, 0x00, 0x00,
  0x0c, 0x00, 0x00, 0x00, 0x14, 0x00, 0x00, 0x00, 0x00, 0x00, 0x00, 0x00,
  0x04, 0x00, 0x00, 0x00, 0x61, 0x72, 0x67, 0x31, 0x00, 0x00, 0x00, 0x00,
  0x94, 0xc8, 0xff, 0xff, 0x42, 0xce, 0xff, 0xff, 0x00, 0x00, 0x00, 0x02,
  0x10, 0x00, 0x00, 0x00, 0x71, 0x00, 0x00, 0x00, 0x0c, 0x00, 0x00, 0x00,
  0x14, 0x00, 0x00, 0x00, 0x00, 0x00, 0x00, 0x00, 0x04, 0x00, 0x00, 0x00,
  0x61, 0x72, 0x67, 0x30, 0x00, 0x00, 0x00, 0x00, 0xc0, 0xc8, 0xff, 0xff,
  0x4e, 0xe7, 0xff, 0xff, 0x14, 0x00, 0x00, 0x00, 0x44, 0x00, 0x00, 0x00,
  0x70, 0x00, 0x00, 0x00, 0x74, 0x00, 0x00, 0x00, 0x78, 0x00, 0x00, 0x00,
  0x0c, 0x00, 0x00, 0x00, 0x98, 0x02, 0x00, 0x00, 0x68, 0x02, 0x00, 0x00,
  0x38, 0x02, 0x00, 0x00, 0x0c, 0x02, 0x00, 0x00, 0xe0, 0x01, 0x00, 0x00,
  0xb4, 0x01, 0x00, 0x00, 0x84, 0x01, 0x00, 0x00, 0x58, 0x01, 0x00, 0x00,
  0x2c, 0x01, 0x00, 0x00, 0x00, 0x01, 0x00, 0x00, 0xd4, 0x00, 0x00, 0x00,
  0xa4, 0x00, 0x00, 0x00, 0x0b, 0x00, 0x00, 0x00, 0x00, 0x00, 0x00, 0x00,
  0x01, 0x00, 0x00, 0x00, 0x02, 0x00, 0x00, 0x00, 0x03, 0x00, 0x00, 0x00,
  0x04, 0x00, 0x00, 0x00, 0x05, 0x00, 0x00, 0x00, 0x06, 0x00, 0x00, 0x00,
  0x07, 0x00, 0x00, 0x00, 0x08, 0x00, 0x00, 0x00, 0x09, 0x00, 0x00, 0x00,
  0x0a, 0x00, 0x00, 0x00, 0x01, 0x00, 0x00, 0x00, 0x0b, 0x00, 0x00, 0x00,
  0x01, 0x00, 0x00, 0x00, 0x34, 0x00, 0x00, 0x00, 0x2a, 0x00, 0x00, 0x00,
  0x5f, 0x5f, 0x69, 0x6e, 0x66, 0x65, 0x72, 0x65, 0x6e, 0x63, 0x65, 0x5f,
  0x77, 0x68, 0x69, 0x6c, 0x65, 0x5f, 0x63, 0x6f, 0x6e, 0x64, 0x5f, 0x32,
  0x32, 0x31, 0x37, 0x31, 0x5f, 0x33, 0x32, 0x36, 0x37, 0x39, 0x5f, 0x66,
  0x72, 0x6f, 0x7a, 0x65, 0x6e, 0x30, 0x00, 0x00, 0x7e, 0xec, 0xff, 0xff,
  0x13, 0x00, 0x00, 0x00, 0x10, 0x00, 0x00, 0x00, 0x04, 0x00, 0x00, 0x00,
  0x01, 0x00, 0x00, 0x00, 0x0b, 0x00, 0x00, 0x00, 0x02, 0x00, 0x00, 0x00,
  0x02, 0x00, 0x00, 0x00, 0x06, 0x00, 0x00, 0x00, 0xd6, 0xda, 0xff, 0xff,
  0x00, 0x00, 0x00, 0x3a, 0x01, 0x00, 0x00, 0x00, 0x5a, 0xcf, 0xff, 0xff,
  0x00, 0x00, 0x00, 0x06, 0x10, 0x00, 0x00, 0x00, 0x70, 0x00, 0x00, 0x00,
  0x0c, 0x00, 0x00, 0x00, 0x14, 0x00, 0x00, 0x00, 0x00, 0x00, 0x00, 0x00,
  0x04, 0x00, 0x00, 0x00, 0x4c, 0x65, 0x73, 0x73, 0x00, 0x00, 0x00, 0x00,
  0xd8, 0xc9, 0xff, 0xff, 0x26, 0xca, 0xff, 0xff, 0x10, 0x00, 0x00, 0x00,
  0x6f, 0x00, 0x00, 0x00, 0x0c, 0x00, 0x00, 0x00, 0x14, 0x00, 0x00, 0x00,
  0x00, 0x00, 0x00, 0x00, 0x05, 0x00, 0x00, 0x00, 0x61, 0x72, 0x67, 0x31,
  0x30, 0x00, 0x00, 0x00, 0x00, 0xca, 0xff, 0xff, 0x4e, 0xca, 0xff, 0xff,
  0x10, 0x00, 0x00, 0x00, 0x6e, 0x00, 0x00, 0x00, 0x0c, 0x00, 0x00, 0x00,
  0x14, 0x00, 0x00, 0x00, 0x00, 0x00, 0x00, 0x00, 0x04, 0x00, 0x00, 0x00,
  0x61, 0x72, 0x67, 0x39, 0x00, 0x00, 0x00, 0x00, 0x28, 0xca, 0xff, 0xff,
  0x76, 0xca, 0xff, 0xff, 0x10, 0x00, 0x00, 0x00, 0x6d, 0x00, 0x00, 0x00,
  0x0c, 0x00, 0x00, 0x00, 0x14, 0x00, 0x00, 0x00, 0x00, 0x00, 0x00, 0x00,
  0x04, 0x00, 0x00, 0x00, 0x61, 0x72, 0x67, 0x38, 0x00, 0x00, 0x00, 0x00,
  0x50, 0xca, 0xff, 0xff, 0x9e, 0xca, 0xff, 0xff, 0x10, 0x00, 0x00, 0x00,
  0x6c, 0x00, 0x00, 0x00, 0x0c, 0x00, 0x00, 0x00, 0x14, 0x00, 0x00, 0x00,
  0x00, 0x00, 0x00, 0x00, 0x04, 0x00, 0x00, 0x00, 0x61, 0x72, 0x67, 0x37,
  0x00, 0x00, 0x00, 0x00, 0x78, 0xca, 0xff, 0xff, 0x26, 0xd0, 0xff, 0xff,
  0x00, 0x00, 0x00, 0x02, 0x10, 0x00, 0x00, 0x00, 0x6b, 0x00, 0x00, 0x00,
  0x0c, 0x00, 0x00, 0x00, 0x14, 0x00, 0x00, 0x00, 0x00, 0x00, 0x00, 0x00,
  0x04, 0x00, 0x00, 0x00, 0x61, 0x72, 0x67, 0x36, 0x00, 0x00, 0x00, 0x00,
  0xa4, 0xca, 0xff, 0xff, 0xf2, 0xca, 0xff, 0xff, 0x10, 0x00, 0x00, 0x00,
  0x6a, 0x00, 0x00, 0x00, 0x0c, 0x00, 0x00, 0x00, 0x14, 0x00, 0x00, 0x00,
  0x00, 0x00, 0x00, 0x00, 0x04, 0x00, 0x00, 0x00, 0x61, 0x72, 0x67, 0x35,
  0x00, 0x00, 0x00, 0x00, 0xcc, 0xca, 0xff, 0xff, 0x1a, 0xcb, 0xff, 0xff,
  0x10, 0x00, 0x00, 0x00, 0x69, 0x00, 0x00, 0x00, 0x0c, 0x00, 0x00, 0x00,
  0x14, 0x00, 0x00, 0x00, 0x00, 0x00, 0x00, 0x00, 0x04, 0x00, 0x00, 0x00,
  0x61, 0x72, 0x67, 0x34, 0x00, 0x00, 0x00, 0x00, 0xf4, 0xca, 0xff, 0xff,
  0x42, 0xcb, 0xff, 0xff, 0x10, 0x00, 0x00, 0x00, 0x68, 0x00, 0x00, 0x00,
  0x0c, 0x00, 0x00, 0x00, 0x14, 0x00, 0x00, 0x00, 0x00, 0x00, 0x00, 0x00,
  0x04, 0x00, 0x00, 0x00, 0x61, 0x72, 0x67, 0x33, 0x00, 0x00, 0x00, 0x00,
  0x1c, 0xcb, 0xff, 0xff, 0xca, 0xd0, 0xff, 0xff, 0x00, 0x00, 0x00, 0x02,
  0x10, 0x00, 0x00, 0x00, 0x67, 0x00, 0x00, 0x00, 0x0c, 0x00, 0x00, 0x00,
  0x14, 0x00, 0x00, 0x00, 0x00, 0x00, 0x00, 0x00, 0x04, 0x00, 0x00, 0x00,
  0x61, 0x72, 0x67, 0x32, 0x00, 0x00, 0x00, 0x00, 0x48, 0xcb, 0xff, 0xff,
  0xf6, 0xd0, 0xff, 0xff, 0x00, 0x00, 0x00, 0x02, 0x10, 0x00, 0x00, 0x00,
  0x66, 0x00, 0x00, 0x00, 0x0c, 0x00, 0x00, 0x00, 0x14, 0x00, 0x00, 0x00,
  0x00, 0x00, 0x00, 0x00, 0x04, 0x00, 0x00, 0x00, 0x61, 0x72, 0x67, 0x31,
  0x00, 0x00, 0x00, 0x00, 0x74, 0xcb, 0xff, 0xff, 0x22, 0xd1, 0xff, 0xff,
  0x00, 0x00, 0x00, 0x02, 0x10, 0x00, 0x00, 0x00, 0x65, 0x00, 0x00, 0x00,
  0x0c, 0x00, 0x00, 0x00, 0x14, 0x00, 0x00, 0x00, 0x00, 0x00, 0x00, 0x00,
  0x04, 0x00, 0x00, 0x00, 0x61, 0x72, 0x67, 0x30, 0x00, 0x00, 0x00, 0x00,
  0xa0, 0xcb, 0xff, 0xff, 0x2e, 0xea, 0xff, 0xff, 0x14, 0x00, 0x00, 0x00,
  0x00, 0x01, 0x00, 0x00, 0x2c, 0x01, 0x00, 0x00, 0x58, 0x01, 0x00, 0x00,
  0xf4, 0x01, 0x00, 0x00, 0x3b, 0x00, 0x00, 0x00, 0x88, 0x15, 0x00, 0x00,
  0x58, 0x15, 0x00, 0x00, 0x28, 0x15, 0x00, 0x00, 0xfc, 0x14, 0x00, 0x00,
  0xd0, 0x14, 0x00, 0x00, 0xa4, 0x14, 0x00, 0x00, 0x74, 0x14, 0x00, 0x00,
  0x48, 0x14, 0x00, 0x00, 0x1c, 0x14, 0x00, 0x00, 0xf0, 0x13, 0x00, 0x00,
  0xc4, 0x13, 0x00, 0x00, 0x70, 0x13, 0x00, 0x00, 0x0c, 0x13, 0x00, 0x00,
  0xcc, 0x12, 0x00, 0x00, 0x8c, 0x12, 0x00, 0x00, 0x4c, 0x12, 0x00, 0x00,
  0xe8, 0x11, 0x00, 0x00, 0xa8, 0x11, 0x00, 0x00, 0x30, 0x11, 0x00, 0x00,
  0xc4, 0x10, 0x00, 0x00, 0x5c, 0x10, 0x00, 0x00, 0xf0, 0x0f, 0x00, 0x00,
  0x90, 0x0f, 0x00, 0x00, 0x14, 0x0f, 0x00, 0x00, 0xa8, 0x0e, 0x00, 0x00,
  0x58, 0x0e, 0x00, 0x00, 0x00, 0x0e, 0x00, 0x00, 0xa4, 0x0d, 0x00, 0x00,
  0x54, 0x0d, 0x00, 0x00, 0xf8, 0x0c, 0x00, 0x00, 0x9c, 0x0c, 0x00, 0x00,
  0x40, 0x0c, 0x00, 0x00, 0x14, 0x0c, 0x00, 0x00, 0xe8, 0x0b, 0x00, 0x00,
  0xbc, 0x0b, 0x00, 0x00, 0x44, 0x0b, 0x00, 0x00, 0xe8, 0x0a, 0x00, 0x00,
  0xa0, 0x0a, 0x00, 0x00, 0x34, 0x0a, 0x00, 0x00, 0xe8, 0x09, 0x00, 0x00,
  0x90, 0x09, 0x00, 0x00, 0x34, 0x09, 0x00, 0x00, 0xd8, 0x08, 0x00, 0x00,
  0x8c, 0x08, 0x00, 0x00, 0x0c, 0x08, 0x00, 0x00, 0x98, 0x07, 0x00, 0x00,
  0x28, 0x07, 0x00, 0x00, 0xa8, 0x06, 0x00, 0x00, 0x18, 0x06, 0x00, 0x00,
  0xa8, 0x05, 0x00, 0x00, 0x34, 0x05, 0x00, 0x00, 0xb8, 0x04, 0x00, 0x00,
  0x30, 0x04, 0x00, 0x00, 0xc0, 0x03, 0x00, 0x00, 0x40, 0x03, 0x00, 0x00,
  0xc4, 0x02, 0x00, 0x00, 0x50, 0x02, 0x00, 0x00, 0xc8, 0x01, 0x00, 0x00,
  0x64, 0x01, 0x00, 0x00, 0x0b, 0x00, 0x00, 0x00, 0x00, 0x00, 0x00, 0x00,
  0x01, 0x00, 0x00, 0x00, 0x02, 0x00, 0x00, 0x00, 0x03, 0x00, 0x00, 0x00,
  0x04, 0x00, 0x00, 0x00, 0x05, 0x00, 0x00, 0x00, 0x06, 0x00, 0x00, 0x00,
  0x07, 0x00, 0x00, 0x00, 0x08, 0x00, 0x00, 0x00, 0x09, 0x00, 0x00, 0x00,
  0x0a, 0x00, 0x00, 0x00, 0x0b, 0x00, 0x00, 0x00, 0x3a, 0x00, 0x00, 0x00,
  0x01, 0x00, 0x00, 0x00, 0x11, 0x00, 0x00, 0x00, 0x39, 0x00, 0x00, 0x00,
  0x2b, 0x00, 0x00, 0x00, 0x29, 0x00, 0x00, 0x00, 0x06, 0x00, 0x00, 0x00,
  0x07, 0x00, 0x00, 0x00, 0x08, 0x00, 0x00, 0x00, 0x09, 0x00, 0x00, 0x00,
  0x0a, 0x00, 0x00, 0x00, 0x27, 0x00, 0x00, 0x00, 0x58, 0x10, 0x00, 0x00,
  0xf8, 0x0f, 0x00, 0x00, 0x84, 0x0f, 0x00, 0x00, 0x14, 0x0f, 0x00, 0x00,
  0xb4, 0x0e, 0x00, 0x00, 0x50, 0x0e, 0x00, 0x00, 0xcc, 0x0d, 0x00, 0x00,
  0x7c, 0x0d, 0x00, 0x00, 0x24, 0x0d, 0x00, 0x00, 0xc4, 0x0c, 0x00, 0x00,
  0x74, 0x0c, 0x00, 0x00, 0x14, 0x0c, 0x00, 0x00, 0xbc, 0x0b, 0x00, 0x00,
  0x60, 0x0b, 0x00, 0x00, 0x70, 0x0a, 0x00, 0x00, 0x18, 0x0a, 0x00, 0x00,
  0xc8, 0x09, 0x00, 0x00, 0x64, 0x09, 0x00, 0x00, 0x14, 0x09, 0x00, 0x00,
  0xbc, 0x08, 0x00, 0x00, 0x60, 0x08, 0x00, 0x00, 0x04, 0x08, 0x00, 0x00,
  0xb8, 0x07, 0x00, 0x00, 0x5c, 0x07, 0x00, 0x00, 0xec, 0x06, 0x00, 0x00,
  0x78, 0x06, 0x00, 0x00, 0xf8, 0x05, 0x00, 0x00, 0x6c, 0x05, 0x00, 0x00,
  0xf8, 0x04, 0x00, 0x00, 0x84, 0x04, 0x00, 0x00, 0x04, 0x04, 0x00, 0x00,
  0x84, 0x03, 0x00, 0x00, 0x10, 0x03, 0x00, 0x00, 0x90, 0x02, 0x00, 0x00,
  0x10, 0x02, 0x00, 0x00, 0x9c, 0x01, 0x00, 0x00, 0x14, 0x01, 0x00, 0x00,
  0x94, 0x00, 0x00, 0x00, 0x34, 0x00, 0x00, 0x00, 0x2a, 0x00, 0x00, 0x00,
  0x5f, 0x5f, 0x69, 0x6e, 0x66, 0x65, 0x72, 0x65, 0x6e, 0x63, 0x65, 0x5f,
  0x77, 0x68, 0x69, 0x6c, 0x65, 0x5f, 0x62, 0x6f, 0x64, 0x79, 0x5f, 0x32,
  0x32, 0x31, 0x37, 0x32, 0x5f, 0x33, 0x31, 0x31, 0x30, 0x30, 0x5f, 0x66,
  0x72, 0x6f, 0x7a, 0x65, 0x6e, 0x30, 0x00, 0x00, 0x3a, 0xe8, 0xff, 0xff,
  0x00, 0x00, 0x00, 0x0b, 0x05, 0x00, 0x00, 0x00, 0x18, 0x00, 0x00, 0x00,
  0x0c, 0x00, 0x00, 0x00, 0x04, 0x00, 0x00, 0x00, 0xf4, 0xcd, 0xff, 0xff,
  0x01, 0x00, 0x00, 0x00, 0x3a, 0x00, 0x00, 0x00, 0x02, 0x00, 0x00, 0x00,
  0x00, 0x00, 0x00, 0x00, 0x0f, 0x00, 0x00, 0x00, 0xb6, 0xd3, 0xff, 0xff,
  0x00, 0x00, 0x00, 0x02, 0x10, 0x00, 0x00, 0x00, 0x64, 0x00, 0x00, 0x00,
  0x0c, 0x00, 0x00, 0x00, 0x14, 0x00, 0x00, 0x00, 0x00, 0x00, 0x00, 0x00,
  0x05, 0x00, 0x00, 0x00, 0x61, 0x64, 0x64, 0x5f, 0x33, 0x00, 0x00, 0x00,
  0x34, 0xce, 0xff, 0xff, 0x96, 0xe8, 0xff, 0xff, 0x00, 0x00, 0x00, 0x0a,
  0x10, 0x00, 0x00, 0x00, 0x18, 0x00, 0x00, 0x00, 0x0c, 0x00, 0x00, 0x00,
  0x04, 0x00, 0x00, 0x00, 0x50, 0xce, 0xff, 0xff, 0x01, 0x00, 0x00, 0x00,
  0x39, 0x00, 0x00, 0x00, 0x03, 0x00, 0x00, 0x00, 0x33, 0x00, 0x00, 0x00,
  0x38, 0x00, 0x00, 0x00, 0x37, 0x00, 0x00, 0x00, 0xb6, 0xce, 0xff, 0xff,
  0x10, 0x00, 0x00, 0x00, 0x63, 0x00, 0x00, 0x00, 0x0c, 0x00, 0x00, 0x00,
  0x34, 0x00, 0x00, 0x00, 0x00, 0x00, 0x00, 0x00, 0x26, 0x00, 0x00, 0x00,
  0x54, 0x65, 0x6e, 0x73, 0x6f, 0x72, 0x41, 0x72, 0x72, 0x61, 0x79, 0x56,
  0x32, 0x57, 0x72, 0x69, 0x74, 0x65, 0x2f, 0x54, 0x65, 0x6e, 0x73, 0x6f,
  0x72, 0x4c, 0x69, 0x73, 0x74, 0x53, 0x65, 0x74, 0x49, 0x74, 0x65, 0x6d,
  0x32, 0x32, 0x00, 0x00, 0xb0, 0xce, 0xff, 0xff, 0x12, 0xe9, 0xff, 0xff,
  0x00, 0x00, 0x00, 0x34, 0x12, 0x00, 0x00, 0x00, 0x18, 0x00, 0x00, 0x00,
  0x0c, 0x00, 0x00, 0x00, 0x04, 0x00, 0x00, 0x00, 0xcc, 0xce, 0xff, 0xff,
  0x01, 0x00, 0x00, 0x00, 0x38, 0x00, 0x00, 0x00, 0x02, 0x00, 0x00, 0x00,
  0x2b, 0x00, 0x00, 0x00, 0x0d, 0x00, 0x00, 0x00, 0x16, 0xe0, 0xff, 0xff,
  0x00, 0x00, 0x00, 0x46, 0x01, 0x00, 0x00, 0x00, 0x3a, 0xcf, 0xff, 0xff,
  0x10, 0x00, 0x00, 0x00, 0x62, 0x00, 0x00, 0x00, 0x0c, 0x00, 0x00, 0x00,
  0x34, 0x00, 0x00, 0x00, 0x00, 0x00, 0x00, 0x00, 0x26, 0x00, 0x00, 0x00,
  0x54, 0x65, 0x6e, 0x73, 0x6f, 0x72, 0x41, 0x72, 0x72, 0x61, 0x79, 0x56,
  0x32, 0x57, 0x72, 0x69, 0x74, 0x65, 0x2f, 0x54, 0x65, 0x6e, 0x73, 0x6f,
  0x72, 0x4c, 0x69, 0x73, 0x74, 0x53, 0x65, 0x74, 0x49, 0x74, 0x65, 0x6d,
  0x32, 0x31, 0x00, 0x00, 0x34, 0xcf, 0xff, 0xff, 0x36, 0xf2, 0xff, 0xff,
  0x11, 0x00, 0x00, 0x00, 0x10, 0x00, 0x00, 0x00, 0x04, 0x00, 0x00, 0x00,
  0x01, 0x00, 0x00, 0x00, 0x37, 0x00, 0x00, 0x00, 0x03, 0x00, 0x00, 0x00,
  0x03, 0x00, 0x00, 0x00, 0x35, 0x00, 0x00, 0x00, 0x36, 0x00, 0x00, 0x00,
  0xaa, 0xcf, 0xff, 0xff, 0x10, 0x00, 0x00, 0x00, 0x61, 0x00, 0x00, 0x00,
  0x0c, 0x00, 0x00, 0x00, 0x34, 0x00, 0x00, 0x00, 0x00, 0x00, 0x00, 0x00,
  0x26, 0x00, 0x00, 0x00, 0x54, 0x65, 0x6e, 0x73, 0x6f, 0x72, 0x41, 0x72,
  0x72, 0x61, 0x79, 0x56, 0x32, 0x57, 0x72, 0x69, 0x74, 0x65, 0x2f, 0x54,
  0x65, 0x6e, 0x73, 0x6f, 0x72, 0x4c, 0x69, 0x73, 0x74, 0x53, 0x65, 0x74,
  0x49, 0x74, 0x65, 0x6d, 0x32, 0x30, 0x00, 0x00, 0xa4, 0xcf, 0xff, 0xff,
  0x06, 0xea, 0xff, 0xff, 0x00, 0x00, 0x00, 0x0a, 0x10, 0x00, 0x00, 0x00,
  0x18, 0x00, 0x00, 0x00, 0x0c, 0x00, 0x00, 0x00, 0x04, 0x00, 0x00, 0x00,
  0xc0, 0xcf, 0xff, 0xff, 0x01, 0x00, 0x00, 0x00, 0x36, 0x00, 0x00, 0x00,
  0x02, 0x00, 0x00, 0x00, 0x0c, 0x00, 0x00, 0x00, 0x31, 0x00, 0x00, 0x00,
  0x82, 0xd5, 0xff, 0xff, 0x00, 0x00, 0x00, 0x02, 0x10, 0x00, 0x00, 0x00,
  0x60, 0x00, 0x00, 0x00, 0x0c, 0x00, 0x00, 0x00, 0x34, 0x00, 0x00, 0x00,
  0x00, 0x00, 0x00, 0x00, 0x26, 0x00, 0x00, 0x00, 0x54, 0x65, 0x6e, 0x73,
  0x6f, 0x72, 0x41, 0x72, 0x72, 0x61, 0x79, 0x56, 0x32, 0x57, 0x72, 0x69,
  0x74, 0x65, 0x2f, 0x54, 0x65, 0x6e, 0x73, 0x6f, 0x72, 0x4c, 0x69, 0x73,
  0x74, 0x53, 0x65, 0x74, 0x49, 0x74, 0x65, 0x6d, 0x31, 0x39, 0x00, 0x00,
  0x20, 0xd0, 0xff, 0xff, 0x82, 0xea, 0xff, 0xff, 0x00, 0x00, 0x00, 0x0a,
  0x10, 0x00, 0x00, 0x00, 0x18, 0x00, 0x00, 0x00, 0x0c, 0x00, 0x00, 0x00,
  0x04, 0x00, 0x00, 0x00, 0x3c, 0xd0, 0xff, 0xff, 0x01, 0x00, 0x00, 0x00,
  0x35, 0x00, 0x00, 0x00, 0x02, 0x00, 0x00, 0x00, 0x34, 0x00, 0x00, 0x00,
  0x2e, 0x00, 0x00, 0x00, 0xfe, 0xd5, 0xff, 0xff, 0x00, 0x00, 0x00, 0x02,
  0x10, 0x00, 0x00, 0x00, 0x5f, 0x00, 0x00, 0x00, 0x0c, 0x00, 0x00, 0x00,
  0x34, 0x00, 0x00, 0x00, 0x00, 0x00, 0x00, 0x00, 0x26, 0x00, 0x00, 0x00,
  0x54, 0x65, 0x6e, 0x73, 0x6f, 0x72, 0x41, 0x72, 0x72, 0x61, 0x79, 0x56,
  0x32, 0x57, 0x72, 0x69, 0x74, 0x65, 0x2f, 0x54, 0x65, 0x6e, 0x73, 0x6f,
  0x72, 0x4c, 0x69, 0x73, 0x74, 0x53, 0x65, 0x74, 0x49, 0x74, 0x65, 0x6d,
  0x31, 0x38, 0x00, 0x00, 0x9c, 0xd0, 0xff, 0xff, 0xfe, 0xe1, 0xff, 0xff,
  0x10, 0x00, 0x00, 0x00, 0x04, 0x00, 0x00, 0x00, 0x01, 0x00, 0x00, 0x00,
  0x34, 0x00, 0x00, 0x00, 0x02, 0x00, 0x00, 0x00, 0x11, 0x00, 0x00, 0x00,
  0x10, 0x00, 0x00, 0x00, 0x6a, 0xd6, 0xff, 0xff, 0x00, 0x00, 0x00, 0x02,
  0x10, 0x00, 0x00, 0x00, 0x5e, 0x00, 0x00, 0x00, 0x10, 0x00, 0x00, 0x00,
  0x38, 0x00, 0x00, 0x00, 0x01, 0x00, 0x00, 0x00, 0x01, 0x00, 0x00, 0x00,
  0x26, 0x00, 0x00, 0x00, 0x54, 0x65, 0x6e, 0x73, 0x6f, 0x72, 0x41, 0x72,
  0x72, 0x61, 0x79, 0x56, 0x32, 0x57, 0x72, 0x69, 0x74, 0x65, 0x2f, 0x54,
  0x65, 0x6e, 0x73, 0x6f, 0x72, 0x4c, 0x69, 0x73, 0x74, 0x53, 0x65, 0x74,
  0x49, 0x74, 0x65, 0x6d, 0x31, 0x37, 0x00, 0x00, 0x0c, 0xd1, 0xff, 0xff,
  0x0e, 0xf4, 0xff, 0xff, 0x11, 0x00, 0x00, 0x00, 0x10, 0x00, 0x00, 0x00,
  0x04, 0x00, 0x00, 0x00, 0x01, 0x00, 0x00, 0x00, 0x33, 0x00, 0x00, 0x00,
  0x03, 0x00, 0x00, 0x00, 0x03, 0x00, 0x00, 0x00, 0x2f, 0x00, 0x00, 0x00,
  0x32, 0x00, 0x00, 0x00, 0x6a, 0xe2, 0xff, 0xff, 0x00, 0x00, 0x00, 0x41,
  0x01, 0x00, 0x00, 0x00, 0x8e, 0xd1, 0xff, 0xff, 0x10, 0x00, 0x00, 0x00,
  0x5d, 0x00, 0x00, 0x00, 0x0c, 0x00, 0x00, 0x00, 0x34, 0x00, 0x00, 0x00,
  0x00, 0x00, 0x00, 0x00, 0x26, 0x00, 0x00, 0x00, 0x54, 0x65, 0x6e, 0x73,
  0x6f, 0x72, 0x41, 0x72, 0x72, 0x61, 0x79, 0x56, 0x32, 0x57, 0x72, 0x69,
  0x74, 0x65, 0x2f, 0x54, 0x65, 0x6e, 0x73, 0x6f, 0x72, 0x4c, 0x69, 0x73,
  0x74, 0x53, 0x65, 0x74, 0x49, 0x74, 0x65, 0x6d, 0x31, 0x36, 0x00, 0x00,
  0x88, 0xd1, 0xff, 0xff, 0xea, 0xeb, 0xff, 0xff, 0x00, 0x00, 0x00, 0x0a,
  0x10, 0x00, 0x00, 0x00, 0x18, 0x00, 0x00, 0x00, 0x0c, 0x00, 0x00, 0x00,
  0x04, 0x00, 0x00, 0x00, 0xa4, 0xd1, 0xff, 0xff, 0x01, 0x00, 0x00, 0x00,
  0x32, 0x00, 0x00, 0x00, 0x02, 0x00, 0x00, 0x00, 0x30, 0x00, 0x00, 0x00,
  0x31, 0x00, 0x00, 0x00, 0x66, 0xd7, 0xff, 0xff, 0x00, 0x00, 0x00, 0x02,
  0x10, 0x00, 0x00, 0x00, 0x5c, 0x00, 0x00, 0x00, 0x0c, 0x00, 0x00, 0x00,
  0x34, 0x00, 0x00, 0x00, 0x00, 0x00, 0x00, 0x00, 0x26, 0x00, 0x00, 0x00,
  0x54, 0x65, 0x6e, 0x73, 0x6f, 0x72, 0x41, 0x72, 0x72, 0x61, 0x79, 0x56,
  0x32, 0x57, 0x72, 0x69, 0x74, 0x65, 0x2f, 0x54, 0x65, 0x6e, 0x73, 0x6f,
  0x72, 0x4c, 0x69, 0x73, 0x74, 0x53, 0x65, 0x74, 0x49, 0x74, 0x65, 0x6d,
  0x31, 0x35, 0x00, 0x00, 0x04, 0xd2, 0xff, 0xff, 0x06, 0xf5, 0xff, 0xff,
  0x0f, 0x00, 0x00, 0x00, 0x10, 0x00, 0x00, 0x00, 0x04, 0x00, 0x00, 0x00,
  0x01, 0x00, 0x00, 0x00, 0x31, 0x00, 0x00, 0x00, 0x02, 0x00, 0x00, 0x00,
  0x2d, 0x00, 0x00, 0x00, 0x0e, 0x00, 0x00, 0x00, 0xd6, 0xd7, 0xff, 0xff,
  0x00, 0x00, 0x00, 0x02, 0x10, 0x00, 0x00, 0x00, 0x5b, 0x00, 0x00, 0x00,
  0x0c, 0x00, 0x00, 0x00, 0x34, 0x00, 0x00, 0x00, 0x00, 0x00, 0x00, 0x00,
  0x26, 0x00, 0x00, 0x00, 0x54, 0x65, 0x6e, 0x73, 0x6f, 0x72, 0x41, 0x72,
  0x72, 0x61, 0x79, 0x56, 0x32, 0x57, 0x72, 0x69, 0x74, 0x65, 0x2f, 0x54,
  0x65, 0x6e, 0x73, 0x6f, 0x72, 0x4c, 0x69, 0x73, 0x74, 0x53, 0x65, 0x74,
  0x49, 0x74, 0x65, 0x6d, 0x31, 0x34, 0x00, 0x00, 0x74, 0xd2, 0xff, 0xff,
  0xd6, 0xe3, 0xff, 0xff, 0x10, 0x00, 0x00, 0x00, 0x04, 0x00, 0x00, 0x00,
  0x01, 0x00, 0x00, 0x00, 0x30, 0x00, 0x00, 0x00, 0x02, 0x00, 0x00, 0x00,
  0x02, 0x00, 0x00, 0x00, 0x10, 0x00, 0x00, 0x00, 0x42, 0xd8, 0xff, 0xff,
  0x00, 0x00, 0x00, 0x02, 0x10, 0x00, 0x00, 0x00, 0x5a, 0x00, 0x00, 0x00,
  0x10, 0x00, 0x00, 0x00, 0x38, 0x00, 0x00, 0x00, 0x01, 0x00, 0x00, 0x00,
  0x01, 0x00, 0x00, 0x00, 0x26, 0x00, 0x00, 0x00, 0x54, 0x65, 0x6e, 0x73,
  0x6f, 0x72, 0x41, 0x72, 0x72, 0x61, 0x79, 0x56, 0x32, 0x57, 0x72, 0x69,
  0x74, 0x65, 0x2f, 0x54, 0x65, 0x6e, 0x73, 0x6f, 0x72, 0x4c, 0x69, 0x73,
  0x74, 0x53, 0x65, 0x74, 0x49, 0x74, 0x65, 0x6d, 0x31, 0x33, 0x00, 0x00,
  0xe4, 0xd2, 0xff, 0xff, 0x46, 0xed, 0xff, 0xff, 0x00, 0x00, 0x00, 0x0a,
  0x10, 0x00, 0x00, 0x00, 0x18, 0x00, 0x00, 0x00, 0x0c, 0x00, 0x00, 0x00,
  0x04, 0x00, 0x00, 0x00, 0x00, 0xd3, 0xff, 0xff, 0x01, 0x00, 0x00, 0x00,
  0x2f, 0x00, 0x00, 0x00, 0x02, 0x00, 0x00, 0x00, 0x0b, 0x00, 0x00, 0x00,
  0x2e, 0x00, 0x00, 0x00, 0x4a, 0xe4, 0xff, 0xff, 0x00, 0x00, 0x00, 0x02,
  0x01, 0x00, 0x00, 0x00, 0xce, 0xd8, 0xff, 0xff, 0x00, 0x00, 0x00, 0x02,
  0x10, 0x00, 0x00, 0x00, 0x59, 0x00, 0x00, 0x00, 0x0c, 0x00, 0x00, 0x00,
  0x34, 0x00, 0x00, 0x00, 0x00, 0x00, 0x00, 0x00, 0x26, 0x00, 0x00, 0x00,
  0x54, 0x65, 0x6e, 0x73, 0x6f, 0x72, 0x41, 0x72, 0x72, 0x61, 0x79, 0x56,
  0x32, 0x57, 0x72, 0x69, 0x74, 0x65, 0x2f, 0x54, 0x65, 0x6e, 0x73, 0x6f,
  0x72, 0x4c, 0x69, 0x73, 0x74, 0x53, 0x65, 0x74, 0x49, 0x74, 0x65, 0x6d,
  0x31, 0x32, 0x00, 0x00, 0x6c, 0xd3, 0xff, 0xff, 0x6e, 0xf6, 0xff, 0xff,
  0x0f, 0x00, 0x00, 0x00, 0x10, 0x00, 0x00, 0x00, 0x04, 0x00, 0x00, 0x00,
  0x01, 0x00, 0x00, 0x00, 0x2e, 0x00, 0x00, 0x00, 0x02, 0x00, 0x00, 0x00,
  0x2d, 0x00, 0x00, 0x00, 0x0d, 0x00, 0x00, 0x00, 0xc6, 0xe4, 0xff, 0xff,
  0x00, 0x00, 0x00, 0x5e, 0x01, 0x00, 0x00, 0x00, 0x4a, 0xd9, 0xff, 0xff,
  0x00, 0x00, 0x00, 0x02, 0x10, 0x00, 0x00, 0x00, 0x58, 0x00, 0x00, 0x00,
  0x0c, 0x00, 0x00, 0x00, 0x34, 0x00, 0x00, 0x00, 0x00, 0x00, 0x00, 0x00,
  0x26, 0x00, 0x00, 0x00, 0x54, 0x65, 0x6e, 0x73, 0x6f, 0x72, 0x41, 0x72,
  0x72, 0x61, 0x79, 0x56, 0x32, 0x57, 0x72, 0x69, 0x74, 0x65, 0x2f, 0x54,
  0x65, 0x6e, 0x73, 0x6f, 0x72, 0x4c, 0x69, 0x73, 0x74, 0x53, 0x65, 0x74,
  0x49, 0x74, 0x65, 0x6d, 0x31, 0x31, 0x00, 0x00, 0xe8, 0xd3, 0xff, 0xff,
  0x4a, 0xe5, 0xff, 0xff, 0x10, 0x00, 0x00, 0x00, 0x04, 0x00, 0x00, 0x00,
  0x01, 0x00, 0x00, 0x00, 0x2d, 0x00, 0x00, 0x00, 0x02, 0x00, 0x00, 0x00,
  0x2c, 0x00, 0x00, 0x00, 0x10, 0x00, 0x00, 0x00, 0xb6, 0xd9, 0xff, 0xff,
  0x00, 0x00, 0x00, 0x02, 0x10, 0x00, 0x00, 0x00, 0x57, 0x00, 0x00, 0x00,
  0x10, 0x00, 0x00, 0x00, 0x38, 0x00, 0x00, 0x00, 0x01, 0x00, 0x00, 0x00,
  0x01, 0x00, 0x00, 0x00, 0x26, 0x00, 0x00, 0x00, 0x54, 0x65, 0x6e, 0x73,
  0x6f, 0x72, 0x41, 0x72, 0x72, 0x61, 0x79, 0x56, 0x32, 0x57, 0x72, 0x69,
  0x74, 0x65, 0x2f, 0x54, 0x65, 0x6e, 0x73, 0x6f, 0x72, 0x4c, 0x69, 0x73,
  0x74, 0x53, 0x65, 0x74, 0x49, 0x74, 0x65, 0x6d, 0x31, 0x30, 0x00, 0x00,
  0x58, 0xd4, 0xff, 0xff, 0x5a, 0xf7, 0xff, 0xff, 0x06, 0x00, 0x00, 0x00,
  0x10, 0x00, 0x00, 0x00, 0x04, 0x00, 0x00, 0x00, 0x01, 0x00, 0x00, 0x00,
  0x2c, 0x00, 0x00, 0x00, 0x01, 0x00, 0x00, 0x00, 0x2b, 0x00, 0x00, 0x00,
  0x26, 0xda, 0xff, 0xff, 0x00, 0x00, 0x00, 0x02, 0x10, 0x00, 0x00, 0x00,
  0x56, 0x00, 0x00, 0x00, 0x0c, 0x00, 0x00, 0x00, 0x34, 0x00, 0x00, 0x00,
  0x00, 0x00, 0x00, 0x00, 0x25, 0x00, 0x00, 0x00, 0x54, 0x65, 0x6e, 0x73,
  0x6f, 0x72, 0x41, 0x72, 0x72, 0x61, 0x79, 0x56, 0x32, 0x57, 0x72, 0x69,
  0x74, 0x65, 0x2f, 0x54, 0x65, 0x6e, 0x73, 0x6f, 0x72, 0x4c, 0x69, 0x73,
  0x74, 0x53, 0x65, 0x74, 0x49, 0x74, 0x65, 0x6d, 0x39, 0x00, 0x00, 0x00,
  0xc4, 0xd4, 0xff, 0xff, 0x26, 0xef, 0xff, 0xff, 0x00, 0x00, 0x00, 0x15,
  0x0d, 0x00, 0x00, 0x00, 0x18, 0x00, 0x00, 0x00, 0x0c, 0x00, 0x00, 0x00,
  0x04, 0x00, 0x00, 0x00, 0xe0, 0xd4, 0xff, 0xff, 0x01, 0x00, 0x00, 0x00,
  0x2b, 0x00, 0x00, 0x00, 0x02, 0x00, 0x00, 0x00, 0x26, 0x00, 0x00, 0x00,
  0x2a, 0x00, 0x00, 0x00, 0x42, 0xd5, 0xff, 0xff, 0x10, 0x00, 0x00, 0x00,
  0x55, 0x00, 0x00, 0x00, 0x0c, 0x00, 0x00, 0x00, 0x14, 0x00, 0x00, 0x00,
  0x00, 0x00, 0x00, 0x00, 0x05, 0x00, 0x00, 0x00, 0x6d, 0x75, 0x6c, 0x5f,
  0x32, 0x00, 0x00, 0x00, 0x1c, 0xd5, 0xff, 0xff, 0x1e, 0xf8, 0xff, 0xff,
  0x0e, 0x00, 0x00, 0x00, 0x10, 0x00, 0x00, 0x00, 0x04, 0x00, 0x00, 0x00,
  0x01, 0x00, 0x00, 0x00, 0x2a, 0x00, 0x00, 0x00, 0x01, 0x00, 0x00, 0x00,
  0x29, 0x00, 0x00, 0x00, 0x8a, 0xd5, 0xff, 0xff, 0x10, 0x00, 0x00, 0x00,
  0x54, 0x00, 0x00, 0x00, 0x0c, 0x00, 0x00, 0x00, 0x14, 0x00, 0x00, 0x00,
  0x00, 0x00, 0x00, 0x00, 0x06, 0x00, 0x00, 0x00, 0x54, 0x61, 0x6e, 0x68,
  0x5f, 0x31, 0x00, 0x00, 0x64, 0xd5, 0xff, 0xff, 0xc6, 0xef, 0xff, 0xff,
  0x00, 0x00, 0x00, 0x0b, 0x05, 0x00, 0x00, 0x00, 0x18, 0x00, 0x00, 0x00,
  0x0c, 0x00, 0x00, 0x00, 0x04, 0x00, 0x00, 0x00, 0x80, 0xd5, 0xff, 0xff,
  0x01, 0x00, 0x00, 0x00, 0x29, 0x00, 0x00, 0x00, 0x02, 0x00, 0x00, 0x00,
  0x25, 0x00, 0x00, 0x00, 0x28, 0x00, 0x00, 0x00, 0xe2, 0xd5, 0xff, 0xff,
  0x10, 0x00, 0x00, 0x00, 0x53, 0x00, 0x00, 0x00, 0x0c, 0x00, 0x00, 0x00,
  0x14, 0x00, 0x00, 0x00, 0x00, 0x00, 0x00, 0x00, 0x05, 0x00, 0x00, 0x00,
  0x61, 0x64, 0x64, 0x5f, 0x31, 0x00, 0x00, 0x00, 0xbc, 0xd5, 0xff, 0xff,
  0x1e, 0xf0, 0xff, 0xff, 0x00, 0x00, 0x00, 0x15, 0x0d, 0x00, 0x00, 0x00,
  0x18, 0x00, 0x00, 0x00, 0x0c, 0x00, 0x00, 0x00, 0x04, 0x00, 0x00, 0x00,
  0xd8, 0xd5, 0xff, 0xff, 0x01, 0x00, 0x00, 0x00, 0x28, 0x00, 0x00, 0x00,
  0x02, 0x00, 0x00, 0x00, 0x23, 0x00, 0x00, 0x00, 0x27, 0x00, 0x00, 0x00,
  0x3a, 0xd6, 0xff, 0xff, 0x10, 0x00, 0x00, 0x00, 0x52, 0x00, 0x00, 0x00,
  0x0c, 0x00, 0x00, 0x00, 0x14, 0x00, 0x00, 0x00, 0x00, 0x00, 0x00, 0x00,
  0x05, 0x00, 0x00, 0x00, 0x6d, 0x75, 0x6c, 0x5f, 0x31, 0x00, 0x00, 0x00,
  0x14, 0xd6, 0xff, 0xff, 0x16, 0xf9, 0xff, 0xff, 0x0e, 0x00, 0x00, 0x00,
  0x10, 0x00, 0x00, 0x00, 0x04, 0x00, 0x00, 0x00, 0x01, 0x00, 0x00, 0x00,
  0x27, 0x00, 0x00, 0x00, 0x01, 0x00, 0x00, 0x00, 0x21, 0x00, 0x00, 0x00,
  0x6a, 0xe7, 0xff, 0xff, 0x00, 0x00, 0x00, 0x1c, 0x01, 0x00, 0x00, 0x00,
  0x8e, 0xd6, 0xff, 0xff, 0x10, 0x00, 0x00, 0x00, 0x51, 0x00, 0x00, 0x00,
  0x0c, 0x00, 0x00, 0x00, 0x14, 0x00, 0x00, 0x00, 0x00, 0x00, 0x00, 0x00,
  0x04, 0x00, 0x00, 0x00, 0x54, 0x61, 0x6e, 0x68, 0x00, 0x00, 0x00, 0x00,
  0x68, 0xd6, 0xff, 0xff, 0x6a, 0xf9, 0xff, 0xff, 0x0c, 0x00, 0x00, 0x00,
  0x10, 0x00, 0x00, 0x00, 0x04, 0x00, 0x00, 0x00, 0x01, 0x00, 0x00, 0x00,
  0x26, 0x00, 0x00, 0x00, 0x01, 0x00, 0x00, 0x00, 0x22, 0x00, 0x00, 0x00,
  0xd6, 0xd6, 0xff, 0xff, 0x10, 0x00, 0x00, 0x00, 0x50, 0x00, 0x00, 0x00,
  0x0c, 0x00, 0x00, 0x00, 0x18, 0x00, 0x00, 0x00, 0x00, 0x00, 0x00, 0x00,
  0x09, 0x00, 0x00, 0x00, 0x53, 0x69, 0x67, 0x6d, 0x6f, 0x69, 0x64, 0x5f,
  0x32, 0x00, 0x00, 0x00, 0xb4, 0xd6, 0xff, 0xff, 0x16, 0xf1, 0xff, 0xff,
  0x00, 0x00, 0x00, 0x15, 0x0d, 0x00, 0x00, 0x00, 0x18, 0x00, 0x00, 0x00,
  0x0c, 0x00, 0x00, 0x00, 0x04, 0x00, 0x00, 0x00, 0xd0, 0xd6, 0xff, 0xff,
  0x01, 0x00, 0x00, 0x00, 0x25, 0x00, 0x00, 0x00, 0x02, 0x00, 0x00, 0x00,
  0x24, 0x00, 0x00, 0x00, 0x05, 0x00, 0x00, 0x00, 0x1a, 0xe8, 0xff, 0xff,
  0x00, 0x00, 0x00, 0x12, 0x01, 0x00, 0x00, 0x00, 0x3e, 0xd7, 0xff, 0xff,
  0x10, 0x00, 0x00, 0x00, 0x4f, 0x00, 0x00, 0x00, 0x0c, 0x00, 0x00, 0x00,
  0x10, 0x00, 0x00, 0x00, 0x00, 0x00, 0x00, 0x00, 0x03, 0x00, 0x00, 0x00,
  0x6d, 0x75, 0x6c, 0x00, 0x14, 0xd7, 0xff, 0xff, 0x16, 0xfa, 0xff, 0xff,
  0x0c, 0x00, 0x00, 0x00, 0x10, 0x00, 0x00, 0x00, 0x04, 0x00, 0x00, 0x00,
  0x01, 0x00, 0x00, 0x00, 0x24, 0x00, 0x00, 0x00, 0x01, 0x00, 0x00, 0x00,
  0x20, 0x00, 0x00, 0x00, 0x82, 0xd7, 0xff, 0xff, 0x10, 0x00, 0x00, 0x00,
  0x4e, 0x00, 0x00, 0x00, 0x0c, 0x00, 0x00, 0x00, 0x18, 0x00, 0x00, 0x00,
  0x00, 0x00, 0x00, 0x00, 0x09, 0x00, 0x00, 0x00, 0x53, 0x69, 0x67, 0x6d,
  0x6f, 0x69, 0x64, 0x5f, 0x31, 0x00, 0x00, 0x00, 0x60, 0xd7, 0xff, 0xff,
  0x62, 0xfa, 0xff, 0xff, 0x0c, 0x00, 0x00, 0x00, 0x10, 0x00, 0x00, 0x00,
  0x04, 0x00, 0x00, 0x00, 0x01, 0x00, 0x00, 0x00, 0x23, 0x00, 0x00, 0x00,
  0x01, 0x00, 0x00, 0x00, 0x1f, 0x00, 0x00, 0x00, 0xb6, 0xe8, 0xff, 0xff,
  0x00, 0x00, 0x00, 0x0e, 0x01, 0x00, 0x00, 0x00, 0xda, 0xd7, 0xff, 0xff,
  0x10, 0x00, 0x00, 0x00, 0x4d, 0x00, 0x00, 0x00, 0x0c, 0x00, 0x00, 0x00,
  0x14, 0x00, 0x00, 0x00, 0x00, 0x00, 0x00, 0x00, 0x07, 0x00, 0x00, 0x00,
  0x53, 0x69, 0x67, 0x6d, 0x6f, 0x69, 0x64, 0x00, 0xb4, 0xd7, 0xff, 0xff,
  0x16, 0xf2, 0xff, 0xff, 0x00, 0x00, 0x00, 0x23, 0x0b, 0x00, 0x00, 0x00,
  0x28, 0x00, 0x00, 0x00, 0x10, 0x00, 0x00, 0x00, 0x04, 0x00, 0x00, 0x00,
  0xc6, 0xd8, 0xff, 0xff, 0x04, 0x00, 0x00, 0x00, 0x04, 0x00, 0x00, 0x00,
  0x1f, 0x00, 0x00, 0x00, 0x20, 0x00, 0x00, 0x00, 0x21, 0x00, 0x00, 0x00,
  0x22, 0x00, 0x00, 0x00, 0x02, 0x00, 0x00, 0x00, 0x0f, 0x00, 0x00, 0x00,
  0x1e, 0x00, 0x00, 0x00, 0x2a, 0xe9, 0xff, 0xff, 0x00, 0x00, 0x00, 0x31,
  0x03, 0x00, 0x00, 0x00, 0x4e, 0xd8, 0xff, 0xff, 0x10, 0x00, 0x00, 0x00,
  0x4c, 0x00, 0x00, 0x00, 0x0c, 0x00, 0x00, 0x00, 0x14, 0x00, 0x00, 0x00,
  0x00, 0x00, 0x00, 0x00, 0x06, 0x00, 0x00, 0x00, 0x73, 0x70, 0x6c, 0x69,
  0x74, 0x33, 0x00, 0x00, 0x28, 0xd8, 0xff, 0xff, 0x76, 0xd8, 0xff, 0xff,
  0x10, 0x00, 0x00, 0x00, 0x4b, 0x00, 0x00, 0x00, 0x0c, 0x00, 0x00, 0x00,
  0x14, 0x00, 0x00, 0x00, 0x00, 0x00, 0x00, 0x00, 0x06, 0x00, 0x00, 0x00,
  0x73, 0x70, 0x6c, 0x69, 0x74, 0x32, 0x00, 0x00, 0x50, 0xd8, 0xff, 0xff,
  0x9e, 0xd8, 0xff, 0xff, 0x10, 0x00, 0x00, 0x00, 0x4a, 0x00, 0x00, 0x00,
  0x0c, 0x00, 0x00, 0x00, 0x14, 0x00, 0x00, 0x00, 0x00, 0x00, 0x00, 0x00,
  0x06, 0x00, 0x00, 0x00, 0x73, 0x70, 0x6c, 0x69, 0x74, 0x31, 0x00, 0x00,
  0x78, 0xd8, 0xff, 0xff, 0xc6, 0xd8, 0xff, 0xff, 0x10, 0x00, 0x00, 0x00,
  0x49, 0x00, 0x00, 0x00, 0x0c, 0x00, 0x00, 0x00, 0x14, 0x00, 0x00, 0x00,
  0x00, 0x00, 0x00, 0x00, 0x05, 0x00, 0x00, 0x00, 0x73, 0x70, 0x6c, 0x69,
  0x74, 0x00, 0x00, 0x00, 0xa0, 0xd8, 0xff, 0xff, 0x02, 0xf3, 0xff, 0xff,
  0x00, 0x00, 0x00, 0x0b, 0x05, 0x00, 0x00, 0x00, 0x18, 0x00, 0x00, 0x00,
  0x0c, 0x00, 0x00, 0x00, 0x04, 0x00, 0x00, 0x00, 0xbc, 0xd8, 0xff, 0xff,
  0x01, 0x00, 0x00, 0x00, 0x1e, 0x00, 0x00, 0x00, 0x02, 0x00, 0x00, 0x00,
  0x1d, 0x00, 0x00, 0x00, 0x0a, 0x00, 0x00, 0x00, 0x1e, 0xd9, 0xff, 0xff,
  0x10, 0x00, 0x00, 0x00, 0x48, 0x00, 0x00, 0x00, 0x0c, 0x00, 0x00, 0x00,
  0x14, 0x00, 0x00, 0x00, 0x00, 0x00, 0x00, 0x00, 0x07, 0x00, 0x00, 0x00,
  0x42, 0x69, 0x61, 0x73, 0x41, 0x64, 0x64, 0x00, 0xf8, 0xd8, 0xff, 0xff,
  0x5a, 0xf3, 0xff, 0xff, 0x00, 0x00, 0x00, 0x0b, 0x05, 0x00, 0x00, 0x00,
  0x18, 0x00, 0x00, 0x00, 0x0c, 0x00, 0x00, 0x00, 0x04, 0x00, 0x00, 0x00,
  0x14, 0xd9, 0xff, 0xff, 0x01, 0x00, 0x00, 0x00, 0x1d, 0x00, 0x00, 0x00,
  0x02, 0x00, 0x00, 0x00, 0x1c, 0x00, 0x00, 0x00, 0x16, 0x00, 0x00, 0x00,
  0x76, 0xd9, 0xff, 0xff, 0x10, 0x00, 0x00, 0x00, 0x47, 0x00, 0x00, 0x00,
  0x0c, 0x00, 0x00, 0x00, 0x10, 0x00, 0x00, 0x00, 0x00, 0x00, 0x00, 0x00,
  0x03, 0x00, 0x00, 0x00, 0x61, 0x64, 0x64, 0x00, 0x4c, 0xd9, 0xff, 0xff,
  0xae, 0xf3, 0xff, 0xff, 0x00, 0x00, 0x00, 0x08, 0x04, 0x00, 0x00, 0x00,
  0x18, 0x00, 0x00, 0x00, 0x0c, 0x00, 0x00, 0x00, 0x04, 0x00, 0x00, 0x00,
  0x68, 0xd9, 0xff, 0xff, 0x01, 0x00, 0x00, 0x00, 0x1c, 0x00, 0x00, 0x00,
  0x03, 0x00, 0x00, 0x00, 0x17, 0x00, 0x00, 0x00, 0x1b, 0x00, 0x00, 0x00,
  0xff, 0xff, 0xff, 0xff, 0xce, 0xd9, 0xff, 0xff, 0x10, 0x00, 0x00, 0x00,
  0x46, 0x00, 0x00, 0x00, 0x0c, 0x00, 0x00, 0x00, 0x14, 0x00, 0x00, 0x00,
  0x00, 0x00, 0x00, 0x00, 0x07, 0x00, 0x00, 0x00, 0x4d, 0x61, 0x74, 0x4d,
  0x75, 0x6c, 0x39, 0x00, 0xa8, 0xd9, 0xff, 0xff, 0xaa, 0xfc, 0xff, 0xff,
  0x09, 0x00, 0x00, 0x00, 0x10, 0x00, 0x00, 0x00, 0x04, 0x00, 0x00, 0x00,
  0x01, 0x00, 0x00, 0x00, 0x1b, 0x00, 0x00, 0x00, 0x02, 0x00, 0x00, 0x00,
  0x08, 0x00, 0x00, 0x00, 0x1a, 0x00, 0x00, 0x00, 0x1a, 0xda, 0xff, 0xff,
  0x10, 0x00, 0x00, 0x00, 0x45, 0x00, 0x00, 0x00, 0x0c, 0x00, 0x00, 0x00,
  0x14, 0x00, 0x00, 0x00, 0x00, 0x00, 0x00, 0x00, 0x07, 0x00, 0x00, 0x00,
  0x4d, 0x61, 0x74, 0x4d, 0x75, 0x6c, 0x38, 0x00, 0xf4, 0xd9, 0xff, 0xff,
  0x56, 0xf4, 0xff, 0xff, 0x00, 0x00, 0x00, 0x1c, 0x08, 0x00, 0x00, 0x00,
  0x18, 0x00, 0x00, 0x00, 0x0c, 0x00, 0x00, 0x00, 0x04, 0x00, 0x00, 0x00,
  0x10, 0xda, 0xff, 0xff, 0x01, 0x00, 0x00, 0x00, 0x1a, 0x00, 0x00, 0x00,
  0x02, 0x00, 0x00, 0x00, 0x19, 0x00, 0x00, 0x00, 0x0f, 0x00, 0x00, 0x00,
  0xd2, 0xdf, 0xff, 0xff, 0x00, 0x00, 0x00, 0x02, 0x10, 0x00, 0x00, 0x00,
  0x44, 0x00, 0x00, 0x00, 0x0c, 0x00, 0x00, 0x00, 0x14, 0x00, 0x00, 0x00,
  0x00, 0x00, 0x00, 0x00, 0x07, 0x00, 0x00, 0x00, 0x4d, 0x61, 0x74, 0x4d,
  0x75, 0x6c, 0x37, 0x00, 0x50, 0xda, 0xff, 0xff, 0x52, 0xfd, 0xff, 0xff,
  0x07, 0x00, 0x00, 0x00, 0x10, 0x00, 0x00, 0x00, 0x04, 0x00, 0x00, 0x00,
  0x01, 0x00, 0x00, 0x00, 0x19, 0x00, 0x00, 0x00, 0x03, 0x00, 0x00, 0x00,
  0x18, 0x00, 0x00, 0x00, 0x0d, 0x00, 0x00, 0x00, 0x0e, 0x00, 0x00, 0x00,
  0x26, 0xe0, 0xff, 0xff, 0x00, 0x00, 0x00, 0x02, 0x10, 0x00, 0x00, 0x00,
  0x43, 0x00, 0x00, 0x00, 0x0c, 0x00, 0x00, 0x00, 0x14, 0x00, 0x00, 0x00,
  0x00, 0x00, 0x00, 0x00, 0x07, 0x00, 0x00, 0x00, 0x4d, 0x61, 0x74, 0x4d,
  0x75, 0x6c, 0x36, 0x00, 0xa4, 0xda, 0xff, 0xff, 0xa6, 0xfd, 0xff, 0xff,
  0x06, 0x00, 0x00, 0x00, 0x10, 0x00, 0x00, 0x00, 0x04, 0x00, 0x00, 0x00,
  0x01, 0x00, 0x00, 0x00, 0x18, 0x00, 0x00, 0x00, 0x01, 0x00, 0x00, 0x00,
  0x08, 0x00, 0x00, 0x00, 0x72, 0xe0, 0xff, 0xff, 0x00, 0x00, 0x00, 0x02,
  0x10, 0x00, 0x00, 0x00, 0x42, 0x00, 0x00, 0x00, 0x0c, 0x00, 0x00, 0x00,
  0x14, 0x00, 0x00, 0x00, 0x00, 0x00, 0x00, 0x00, 0x07, 0x00, 0x00, 0x00,
  0x4d, 0x61, 0x74, 0x4d, 0x75, 0x6c, 0x35, 0x00, 0xf0, 0xda, 0xff, 0xff,
  0x52, 0xf5, 0xff, 0xff, 0x00, 0x00, 0x00, 0x17, 0x0a, 0x00, 0x00, 0x00,
  0x18, 0x00, 0x00, 0x00, 0x0c, 0x00, 0x00, 0x00, 0x04, 0x00, 0x00, 0x00,
  0x0c, 0xdb, 0xff, 0xff, 0x01, 0x00, 0x00, 0x00, 0x17, 0x00, 0x00, 0x00,
  0x02, 0x00, 0x00, 0x00, 0x07, 0x00, 0x00, 0x00, 0x02, 0x00, 0x00, 0x00,
  0x56, 0xec, 0xff, 0xff, 0x00, 0x00, 0x00, 0x24, 0x01, 0x00, 0x00, 0x00,
  0x7a, 0xdb, 0xff, 0xff, 0x10, 0x00, 0x00, 0x00, 0x41, 0x00, 0x00, 0x00,
  0x0c, 0x00, 0x00, 0x00, 0x30, 0x00, 0x00, 0x00, 0x00, 0x00, 0x00, 0x00,
  0x23, 0x00, 0x00, 0x00, 0x54, 0x65, 0x6e, 0x73, 0x6f, 0x72, 0x41, 0x72,
  0x72, 0x61, 0x79, 0x56, 0x32, 0x52, 0x65, 0x61, 0x64, 0x2f, 0x54, 0x65,
  0x6e, 0x73, 0x6f, 0x72, 0x4c, 0x69, 0x73, 0x74, 0x47, 0x65, 0x74, 0x49,
  0x74, 0x65, 0x6d, 0x00, 0x70, 0xdb, 0xff, 0xff, 0xd2, 0xf5, 0xff, 0xff,
  0x00, 0x00, 0x00, 0x08, 0x04, 0x00, 0x00, 0x00, 0x18, 0x00, 0x00, 0x00,
  0x0c, 0x00, 0x00, 0x00, 0x04, 0x00, 0x00, 0x00, 0x8c, 0xdb, 0xff, 0xff,
  0x01, 0x00, 0x00, 0x00, 0x16, 0x00, 0x00, 0x00, 0x03, 0x00, 0x00, 0x00,
  0x04, 0x00, 0x00, 0x00, 0x15, 0x00, 0x00, 0x00, 0xff, 0xff, 0xff, 0xff,
  0xf2, 0xdb, 0xff, 0xff, 0x10, 0x00, 0x00, 0x00, 0x40, 0x00, 0x00, 0x00,
  0x0c, 0x00, 0x00, 0x00, 0x18, 0x00, 0x00, 0x00, 0x00, 0x00, 0x00, 0x00,
  0x09, 0x00, 0x00, 0x00, 0x4d, 0x61, 0x74, 0x4d, 0x75, 0x6c, 0x5f, 0x31,
  0x35, 0x00, 0x00, 0x00, 0xd0, 0xdb, 0xff, 0xff, 0xd2, 0xfe, 0xff, 0xff,
  0x09, 0x00, 0x00, 0x00, 0x10, 0x00, 0x00, 0x00, 0x04, 0x00, 0x00, 0x00,
  0x01, 0x00, 0x00, 0x00, 0x15, 0x00, 0x00, 0x00, 0x02, 0x00, 0x00, 0x00,
  0x09, 0x00, 0x00, 0x00, 0x14, 0x00, 0x00, 0x00, 0x2a, 0xed, 0xff, 0xff,
  0x00, 0x00, 0x00, 0x27, 0x01, 0x00, 0x00, 0x00, 0x4e, 0xdc, 0xff, 0xff,
  0x10, 0x00, 0x00, 0x00, 0x3f, 0x00, 0x00, 0x00, 0x0c, 0x00, 0x00, 0x00,
  0x18, 0x00, 0x00, 0x00, 0x00, 0x00, 0x00, 0x00, 0x09, 0x00, 0x00, 0x00,
  0x4d, 0x61, 0x74, 0x4d, 0x75, 0x6c, 0x5f, 0x31, 0x34, 0x00, 0x00, 0x00,
  0x2c, 0xdc, 0xff, 0xff, 0x8e, 0xf6, 0xff, 0xff, 0x00, 0x00, 0x00, 0x1c,
  0x08, 0x00, 0x00, 0x00, 0x18, 0x00, 0x00, 0x00, 0x0c, 0x00, 0x00, 0x00,
  0x04, 0x00, 0x00, 0x00, 0x48, 0xdc, 0xff, 0xff, 0x01, 0x00, 0x00, 0x00,
  0x14, 0x00, 0x00, 0x00, 0x02, 0x00, 0x00, 0x00, 0x13, 0x00, 0x00, 0x00,
  0x0f, 0x00, 0x00, 0x00, 0x92, 0xed, 0xff, 0xff, 0x00, 0x00, 0x00, 0x29,
  0x01, 0x00, 0x00, 0x00, 0x16, 0xe2, 0xff, 0xff, 0x00, 0x00, 0x00, 0x02,
  0x10, 0x00, 0x00, 0x00, 0x3e, 0x00, 0x00, 0x00, 0x0c, 0x00, 0x00, 0x00,
  0x18, 0x00, 0x00, 0x00, 0x00, 0x00, 0x00, 0x00, 0x09, 0x00, 0x00, 0x00,
  0x4d, 0x61, 0x74, 0x4d, 0x75, 0x6c, 0x5f, 0x31, 0x33, 0x00, 0x00, 0x00,
  0x98, 0xdc, 0xff, 0xff, 0x9a, 0xff, 0xff, 0xff, 0x07, 0x00, 0x00, 0x00,
  0x10, 0x00, 0x00, 0x00, 0x04, 0x00, 0x00, 0x00, 0x01, 0x00, 0x00, 0x00,
  0x13, 0x00, 0x00, 0x00, 0x03, 0x00, 0x00, 0x00, 0x12, 0x00, 0x00, 0x00,
  0x0d, 0x00, 0x00, 0x00, 0x0e, 0x00, 0x00, 0x00, 0xf6, 0xed, 0xff, 0xff,
  0x00, 0x00, 0x00, 0x60, 0x01, 0x00, 0x00, 0x00, 0x7a, 0xe2, 0xff, 0xff,
  0x00, 0x00, 0x00, 0x02, 0x10, 0x00, 0x00, 0x00, 0x3d, 0x00, 0x00, 0x00,
  0x0c, 0x00, 0x00, 0x00, 0x18, 0x00, 0x00, 0x00, 0x00, 0x00, 0x00, 0x00,
  0x09, 0x00, 0x00, 0x00, 0x4d, 0x61, 0x74, 0x4d, 0x75, 0x6c, 0x5f, 0x31,
  0x32, 0x00, 0x00, 0x00, 0x50, 0xdd, 0xff, 0xff, 0x00, 0x00, 0x0a, 0x00,
  0x10, 0x00, 0x04, 0x00, 0x08, 0x00, 0x0c, 0x00, 0x0a, 0x00, 0x00, 0x00,
  0x06, 0x00, 0x00, 0x00, 0x10, 0x00, 0x00, 0x00, 0x04, 0x00, 0x00, 0x00,
  0x01, 0x00, 0x00, 0x00, 0x12, 0x00, 0x00, 0x00, 0x01, 0x00, 0x00, 0x00,
  0x09, 0x00, 0x00, 0x00, 0x5e, 0xee, 0xff, 0xff, 0x00, 0x00, 0x00, 0x6e,
  0x01, 0x00, 0x00, 0x00, 0xe2, 0xe2, 0xff, 0xff, 0x00, 0x00, 0x00, 0x02,
  0x10, 0x00, 0x00, 0x00, 0x3c, 0x00, 0x00, 0x00, 0x0c, 0x00, 0x00, 0x00,
  0x18, 0x00, 0x00, 0x00, 0x00, 0x00, 0x00, 0x00, 0x09, 0x00, 0x00, 0x00,
  0x4d, 0x61, 0x74, 0x4d, 0x75, 0x6c, 0x5f, 0x31, 0x31, 0x00, 0x00, 0x00,
  0x64, 0xdd, 0xff, 0xff, 0xc6, 0xf7, 0xff, 0xff, 0x00, 0x00, 0x00, 0x0b,
  0x05, 0x00, 0x00, 0x00, 0x18, 0x00, 0x00, 0x00, 0x0c, 0x00, 0x00, 0x00,
  0x04, 0x00, 0x00, 0x00, 0x80, 0xdd, 0xff, 0xff, 0x01, 0x00, 0x00, 0x00,
  0x11, 0x00, 0x00, 0x00, 0x02, 0x00, 0x00, 0x00, 0x02, 0x00, 0x00, 0x00,
  0x0f, 0x00, 0x00, 0x00, 0x00, 0x00, 0x0a, 0x00, 0x08, 0x00, 0x00, 0x00,
  0x00, 0x00, 0x04, 0x00, 0x0a, 0x00, 0x00, 0x00, 0x01, 0x00, 0x00, 0x00,
  0x56, 0xe3, 0xff, 0xff, 0x00, 0x00, 0x00, 0x02, 0x10, 0x00, 0x00, 0x00,
  0x3b, 0x00, 0x00, 0x00, 0x0c, 0x00, 0x00, 0x00, 0x14, 0x00, 0x00, 0x00,
  0x00, 0x00, 0x00, 0x00, 0x05, 0x00, 0x00, 0x00, 0x61, 0x64, 0x64, 0x5f,
  0x32, 0x00, 0x00, 0x00, 0xd4, 0xdd, 0xff, 0xff, 0xce, 0xde, 0xff, 0xff,
  0x04, 0x00, 0x00, 0x00, 0x04, 0x00, 0x00, 0x00, 0x01, 0x00, 0x00, 0x00,
  0x92, 0xe3, 0xff, 0xff, 0x00, 0x00, 0x00, 0x02, 0x10, 0x00, 0x00, 0x00,
  0x3a, 0x00, 0x00, 0x00, 0x10, 0x00, 0x00, 0x00, 0x38, 0x00, 0x00, 0x00,
  0x01, 0x00, 0x00, 0x00, 0x01, 0x00, 0x00, 0x00, 0x25, 0x00, 0x00, 0x00,
  0x54, 0x65, 0x6e, 0x73, 0x6f, 0x72, 0x41, 0x72, 0x72, 0x61, 0x79, 0x56,
  0x32, 0x57, 0x72, 0x69, 0x74, 0x65, 0x2f, 0x54, 0x65, 0x6e, 0x73, 0x6f,
  0x72, 0x4c, 0x69, 0x73, 0x74, 0x53, 0x65, 0x74, 0x49, 0x74, 0x65, 0x6d,
  0x38, 0x00, 0x00, 0x00, 0x34, 0xde, 0xff, 0xff, 0x2e, 0xdf, 0xff, 0xff,
  0x04, 0x00, 0x00, 0x00, 0x04, 0x00, 0x00, 0x00, 0x01, 0x00, 0x00, 0x00,
  0xf2, 0xe3, 0xff, 0xff, 0x00, 0x00, 0x00, 0x02, 0x10, 0x00, 0x00, 0x00,
  0x39, 0x00, 0x00, 0x00, 0x0c, 0x00, 0x00, 0x00, 0x14, 0x00, 0x00, 0x00,
  0x00, 0x00, 0x00, 0x00, 0x07, 0x00, 0x00, 0x00, 0x4d, 0x61, 0x74, 0x4d,
  0x75, 0x6c, 0x33, 0x00, 0x70, 0xde, 0xff, 0xff, 0x6a, 0xdf, 0xff, 0xff,
  0x04, 0x00, 0x00, 0x00, 0x04, 0x00, 0x00, 0x00, 0xff, 0xff, 0xff, 0xff,
  0x2e, 0xe4, 0xff, 0xff, 0x00, 0x00, 0x00, 0x02, 0x10, 0x00, 0x00, 0x00,
  0x38, 0x00, 0x00, 0x00, 0x0c, 0x00, 0x00, 0x00, 0x14, 0x00, 0x00, 0x00,
  0x00, 0x00, 0x00, 0x00, 0x07, 0x00, 0x00, 0x00, 0x4d, 0x61, 0x74, 0x4d,
  0x75, 0x6c, 0x32, 0x00, 0xac, 0xde, 0xff, 0xff, 0xa6, 0xdf, 0xff, 0xff,
  0x04, 0x00, 0x00, 0x00, 0x04, 0x00, 0x00, 0x00, 0x00, 0x00, 0x00, 0x00,
  0x6a, 0xe4, 0xff, 0xff, 0x00, 0x00, 0x00, 0x02, 0x10, 0x00, 0x00, 0x00,
  0x37, 0x00, 0x00, 0x00, 0x0c, 0x00, 0x00, 0x00, 0x14, 0x00, 0x00, 0x00,
  0x00, 0x00, 0x00, 0x00, 0x07, 0x00, 0x00, 0x00, 0x4d, 0x61, 0x74, 0x4d,
  0x75, 0x6c, 0x31, 0x00, 0xe8, 0xde, 0xff, 0xff, 0xe2, 0xdf, 0xff, 0xff,
  0x04, 0x00, 0x00, 0x00, 0x04, 0x00, 0x00, 0x00, 0xff, 0xff, 0xff, 0xff,
  0xa6, 0xe4, 0xff, 0xff, 0x00, 0x00, 0x00, 0x02, 0x10, 0x00, 0x00, 0x00,
  0x36, 0x00, 0x00, 0x00, 0x10, 0x00, 0x00, 0x00, 0x38, 0x00, 0x00, 0x00,
  0x01, 0x00, 0x00, 0x00, 0x01, 0x00, 0x00, 0x00, 0x25, 0x00, 0x00, 0x00,
  0x54, 0x65, 0x6e, 0x73, 0x6f, 0x72, 0x41, 0x72, 0x72, 0x61, 0x79, 0x56,
  0x32, 0x57, 0x72, 0x69, 0x74, 0x65, 0x2f, 0x54, 0x65, 0x6e, 0x73, 0x6f,
  0x72, 0x4c, 0x69, 0x73, 0x74, 0x53, 0x65, 0x74, 0x49, 0x74, 0x65, 0x6d,
  0x37, 0x00, 0x00, 0x00, 0x48, 0xdf, 0xff, 0xff, 0x42, 0xe0, 0xff, 0xff,
  0x04, 0x00, 0x00, 0x00, 0x04, 0x00, 0x00, 0x00, 0x00, 0x00, 0x00, 0x00,
  0x06, 0xe5, 0xff, 0xff, 0x00, 0x00, 0x00, 0x02, 0x10, 0x00, 0x00, 0x00,
  0x35, 0x00, 0x00, 0x00, 0x10, 0x00, 0x00, 0x00, 0x38, 0x00, 0x00, 0x00,
  0x01, 0x00, 0x00, 0x00, 0x01, 0x00, 0x00, 0x00, 0x25, 0x00, 0x00, 0x00,
  0x54, 0x65, 0x6e, 0x73, 0x6f, 0x72, 0x41, 0x72, 0x72, 0x61, 0x79, 0x56,
  0x32, 0x57, 0x72, 0x69, 0x74, 0x65, 0x2f, 0x54, 0x65, 0x6e, 0x73, 0x6f,
  0x72, 0x4c, 0x69, 0x73, 0x74, 0x53, 0x65, 0x74, 0x49, 0x74, 0x65, 0x6d,
  0x36, 0x00, 0x00, 0x00, 0xa8, 0xdf, 0xff, 0xff, 0xf6, 0xdf, 0xff, 0xff,
  0x10, 0x00, 0x00, 0x00, 0x34, 0x00, 0x00, 0x00, 0x0c, 0x00, 0x00, 0x00,
  0x14, 0x00, 0x00, 0x00, 0x00, 0x00, 0x00, 0x00, 0x05, 0x00, 0x00, 0x00,
  0x61, 0x72, 0x67, 0x31, 0x30, 0x00, 0x00, 0x00, 0xd0, 0xdf, 0xff, 0xff,
  0x1e, 0xe0, 0xff, 0xff, 0x10, 0x00, 0x00, 0x00, 0x33, 0x00, 0x00, 0x00,
  0x0c, 0x00, 0x00, 0x00, 0x14, 0x00, 0x00, 0x00, 0x00, 0x00, 0x00, 0x00,
  0x04, 0x00, 0x00, 0x00, 0x61, 0x72, 0x67, 0x39, 0x00, 0x00, 0x00, 0x00,
  0xf8, 0xdf, 0xff, 0xff, 0x46, 0xe0, 0xff, 0xff, 0x10, 0x00, 0x00, 0x00,
  0x32, 0x00, 0x00, 0x00, 0x0c, 0x00, 0x00, 0x00, 0x14, 0x00, 0x00, 0x00,
  0x00, 0x00, 0x00, 0x00, 0x04, 0x00, 0x00, 0x00, 0x61, 0x72, 0x67, 0x38,
  0x00, 0x00, 0x00, 0x00, 0x20, 0xe0, 0xff, 0xff, 0x6e, 0xe0, 0xff, 0xff,
  0x10, 0x00, 0x00, 0x00, 0x31, 0x00, 0x00, 0x00, 0x0c, 0x00, 0x00, 0x00,
  0x14, 0x00, 0x00, 0x00, 0x00, 0x00, 0x00, 0x00, 0x04, 0x00, 0x00, 0x00,
  0x61, 0x72, 0x67, 0x37, 0x00, 0x00, 0x00, 0x00, 0x48, 0xe0, 0xff, 0xff,
  0xf6, 0xe5, 0xff, 0xff, 0x00, 0x00, 0x00, 0x02, 0x10, 0x00, 0x00, 0x00,
  0x30, 0x00, 0x00, 0x00, 0x0c, 0x00, 0x00, 0x00, 0x14, 0x00, 0x00, 0x00,
  0x00, 0x00, 0x00, 0x00, 0x04, 0x00, 0x00, 0x00, 0x61, 0x72, 0x67, 0x36,
  0x00, 0x00, 0x00, 0x00, 0x74, 0xe0, 0xff, 0xff, 0xc2, 0xe0, 0xff, 0xff,
  0x10, 0x00, 0x00, 0x00, 0x2f, 0x00, 0x00, 0x00, 0x0c, 0x00, 0x00, 0x00,
  0x14, 0x00, 0x00, 0x00, 0x00, 0x00, 0x00, 0x00, 0x04, 0x00, 0x00, 0x00,
  0x61, 0x72, 0x67, 0x35, 0x00, 0x00, 0x00, 0x00, 0x9c, 0xe0, 0xff, 0xff,
  0xea, 0xe0, 0xff, 0xff, 0x10, 0x00, 0x00, 0x00, 0x2e, 0x00, 0x00, 0x00,
  0x0c, 0x00, 0x00, 0x00, 0x14, 0x00, 0x00, 0x00, 0x00, 0x00, 0x00, 0x00,
  0x04, 0x00, 0x00, 0x00, 0x61, 0x72, 0x67, 0x34, 0x00, 0x00, 0x00, 0x00,
  0xc4, 0xe0, 0xff, 0xff, 0x12, 0xe1, 0xff, 0xff, 0x10, 0x00, 0x00, 0x00,
  0x2d, 0x00, 0x00, 0x00, 0x0c, 0x00, 0x00, 0x00, 0x14, 0x00, 0x00, 0x00,
  0x00, 0x00, 0x00, 0x00, 0x04, 0x00, 0x00, 0x00, 0x61, 0x72, 0x67, 0x33,
  0x00, 0x00, 0x00, 0x00, 0xec, 0xe0, 0xff, 0xff, 0x9a, 0xe6, 0xff, 0xff,
  0x00, 0x00, 0x00, 0x02, 0x10, 0x00, 0x00, 0x00, 0x2c, 0x00, 0x00, 0x00,
  0x0c, 0x00, 0x00, 0x00, 0x14, 0x00, 0x00, 0x00, 0x00, 0x00, 0x00, 0x00,
  0x04, 0x00, 0x00, 0x00, 0x61, 0x72, 0x67, 0x32, 0x00, 0x00, 0x00, 0x00,
  0x18, 0xe1, 0xff, 0xff, 0xc6, 0xe6, 0xff, 0xff, 0x00, 0x00, 0x00, 0x02,
  0x10, 0x00, 0x00, 0x00, 0x2b, 0x00, 0x00, 0x00, 0x0c, 0x00, 0x00, 0x00,
  0x14, 0x00, 0x00, 0x00, 0x00, 0x00, 0x00, 0x00, 0x04, 0x00, 0x00, 0x00,
  0x61, 0x72, 0x67, 0x31, 0x00, 0x00, 0x00, 0x00, 0x44, 0xe1, 0xff, 0xff,
  0xf2, 0xe6, 0xff, 0xff, 0x00, 0x00, 0x00, 0x02, 0x10, 0x00, 0x00, 0x00,
  0x2a, 0x00, 0x00, 0x00, 0x0c, 0x00, 0x00, 0x00, 0x14, 0x00, 0x00, 0x00,
  0x00, 0x00, 0x00, 0x00, 0x04, 0x00, 0x00, 0x00, 0x61, 0x72, 0x67, 0x30,
  0x00, 0x00, 0x00, 0x00, 0xc4, 0xe1, 0xff, 0xff, 0x00, 0x00, 0x0e, 0x00,
  0x18, 0x00, 0x04, 0x00, 0x08, 0x00, 0x0c, 0x00, 0x10, 0x00, 0x14, 0x00,
  0x0e, 0x00, 0x00, 0x00, 0x14, 0x00, 0x00, 0x00, 0xb8, 0x00, 0x00, 0x00,
  0xbc, 0x00, 0x00, 0x00, 0xc0, 0x00, 0x00, 0x00, 0xd8, 0x00, 0x00, 0x00,
  0x29, 0x00, 0x00, 0x00, 0x24, 0x1e, 0x00, 0x00, 0x98, 0x1d, 0x00, 0x00,
  0xe8, 0x1c, 0x00, 0x00, 0xc8, 0x1b, 0x00, 0x00, 0xb4, 0x18, 0x00, 0x00,
  0x28, 0x18, 0x00, 0x00, 0xc8, 0x17, 0x00, 0x00, 0x64, 0x17, 0x00, 0x00,
  0x04, 0x17, 0x00, 0x00, 0xa0, 0x16, 0x00, 0x00, 0x40, 0x16, 0x00, 0x00,
  0xf8, 0x15, 0x00, 0x00, 0xb8, 0x11, 0x00, 0x00, 0xb0, 0x10, 0x00, 0x00,
  0xf4, 0x0f, 0x00, 0x00, 0x48, 0x0f, 0x00, 0x00, 0x9c, 0x0e, 0x00, 0x00,
  0x30, 0x0e, 0x00, 0x00, 0x9c, 0x0d, 0x00, 0x00, 0xf8, 0x0c, 0x00, 0x00,
  0x3c, 0x0c, 0x00, 0x00, 0xc0, 0x0b, 0x00, 0x00, 0x3c, 0x0b, 0x00, 0x00,
  0xbc, 0x0a, 0x00, 0x00, 0x3c, 0x0a, 0x00, 0x00, 0xb8, 0x09, 0x00, 0x00,
  0x3c, 0x09, 0x00, 0x00, 0xc0, 0x08, 0x00, 0x00, 0x40, 0x08, 0x00, 0x00,
  0xbc, 0x07, 0x00, 0x00, 0x3c, 0x07, 0x00, 0x00, 0xc0, 0x06, 0x00, 0x00,
  0x40, 0x06, 0x00, 0x00, 0xc4, 0x05, 0x00, 0x00, 0x44, 0x05, 0x00, 0x00,
  0xc8, 0x04, 0x00, 0x00, 0x48, 0x04, 0x00, 0x00, 0xbc, 0x02, 0x00, 0x00,
  0xb8, 0x01, 0x00, 0x00, 0x0c, 0x01, 0x00, 0x00, 0x7c, 0x00, 0x00, 0x00,
  0x01, 0x00, 0x00, 0x00, 0x00, 0x00, 0x00, 0x00, 0x01, 0x00, 0x00, 0x00,
  0x28, 0x00, 0x00, 0x00, 0x06, 0x00, 0x00, 0x00, 0x54, 0x0c, 0x00, 0x00,
  0x54, 0x03, 0x00, 0x00, 0x4c, 0x02, 0x00, 0x00, 0x6c, 0x01, 0x00, 0x00,
  0x80, 0x00, 0x00, 0x00, 0x10, 0x00, 0x00, 0x00, 0x04, 0x00, 0x00, 0x00,
  0x6d, 0x61, 0x69, 0x6e, 0x00, 0x00, 0x00, 0x00, 0xda, 0xfc, 0xff, 0xff,
  0x00, 0x00, 0x00, 0x08, 0x04, 0x00, 0x00, 0x00, 0x18, 0x00, 0x00, 0x00,
  0x0c, 0x00, 0x00, 0x00, 0x04, 0x00, 0x00, 0x00, 0x94, 0xe2, 0xff, 0xff,
  0x01, 0x00, 0x00, 0x00, 0x28, 0x00, 0x00, 0x00, 0x03, 0x00, 0x00, 0x00,
  0x27, 0x00, 0x00, 0x00, 0x0d, 0x00, 0x00, 0x00, 0x05, 0x00, 0x00, 0x00,
  0xe2, 0xf3, 0xff, 0xff, 0x00, 0x00, 0x00, 0x09, 0x01, 0x00, 0x00, 0x00,
  0x06, 0xe3, 0xff, 0xff, 0x10, 0x00, 0x00, 0x00, 0x29, 0x00, 0x00, 0x00,
  0x0c, 0x00, 0x00, 0x00, 0x18, 0x00, 0x00, 0x00, 0x00, 0x00, 0x00, 0x00,
  0x08, 0x00, 0x00, 0x00, 0x49, 0x64, 0x65, 0x6e, 0x74, 0x69, 0x74, 0x79,
  0x00, 0x00, 0x00, 0x00, 0xe4, 0xe2, 0xff, 0xff, 0x4a, 0xfe, 0xff, 0xff,
  0x00, 0x00, 0x00, 0x20, 0x03, 0x00, 0x00, 0x00, 0x34, 0x00, 0x00, 0x00,
  0x28, 0x00, 0x00, 0x00, 0x14, 0x00, 0x00, 0x00, 0x00, 0x00, 0x0e, 0x00,
  0x10, 0x00, 0x0c, 0x00, 0x08, 0x00, 0x00, 0x00, 0x00, 0x00, 0x04, 0x00,
  0x0e, 0x00, 0x00, 0x00, 0x01, 0x00, 0x00, 0x00, 0x06, 0x00, 0x00, 0x00,
  0x06, 0x00, 0x00, 0x00, 0x01, 0x00, 0x00, 0x00, 0x27, 0x00, 0x00, 0x00,
  0x04, 0x00, 0x00, 0x00, 0x26, 0x00, 0x00, 0x00, 0x0e, 0x00, 0x00, 0x00,
  0x0f, 0x00, 0x00, 0x00, 0x10, 0x00, 0x00, 0x00, 0x6e, 0xf4, 0xff, 0xff,
  0x00, 0x00, 0x00, 0x2d, 0x01, 0x00, 0x00, 0x00, 0x92, 0xe3, 0xff, 0xff,
  0x10, 0x00, 0x00, 0x00, 0x28, 0x00, 0x00, 0x00, 0x0c, 0x00, 0x00, 0x00,
  0x74, 0x00, 0x00, 0x00, 0x00, 0x00, 0x00, 0x00, 0x64, 0x00, 0x00, 0x00,
  0x73, 0x74, 0x72, 0x69, 0x64, 0x65, 0x64, 0x5f, 0x73, 0x6c, 0x69, 0x63,
  0x65, 0x5f, 0x32, 0x3b, 0x53, 0x74, 0x61, 0x74, 0x65, 0x66, 0x75, 0x6c,
  0x50, 0x61, 0x72, 0x74, 0x69, 0x74, 0x69, 0x6f, 0x6e, 0x65, 0x64, 0x43,
  0x61, 0x6c, 0x6c, 0x2f, 0x73, 0x65, 0x71, 0x75, 0x65, 0x6e, 0x74, 0x69,
  0x61, 0x6c, 0x5f, 0x33, 0x2f, 0x6c, 0x73, 0x74, 0x6d, 0x5f, 0x33, 0x2f,
  0x53, 0x74, 0x61, 0x74, 0x65, 0x66, 0x75, 0x6c, 0x50, 0x61, 0x72, 0x74,
  0x69, 0x74, 0x69, 0x6f, 0x6e, 0x65, 0x64, 0x43, 0x61, 0x6c, 0x6c, 0x2f,
  0x73, 0x74, 0x72, 0x69, 0x64, 0x65, 0x64, 0x5f, 0x73, 0x6c, 0x69, 0x63,
  0x65, 0x5f, 0x32, 0x33, 0x00, 0x00, 0x00, 0x00, 0xcc, 0xe3, 0xff, 0xff,
  0x2e, 0xf5, 0xff, 0xff, 0x10, 0x00, 0x00, 0x00, 0x04, 0x00, 0x00, 0x00,
  0x01, 0x00, 0x00, 0x00, 0x26, 0x00, 0x00, 0x00, 0x02, 0x00, 0x00, 0x00,
  0x16, 0x00, 0x00, 0x00, 0x25, 0x00, 0x00, 0x00, 0x3a, 0xe4, 0xff, 0xff,
  0x10, 0x00, 0x00, 0x00, 0x27, 0x00, 0x00, 0x00, 0x0c, 0x00, 0x00, 0x00,
  0x98, 0x00, 0x00, 0x00, 0x00, 0x00, 0x00, 0x00, 0x8a, 0x00, 0x00, 0x00,
  0x54, 0x65, 0x6e, 0x73, 0x6f, 0x72, 0x41, 0x72, 0x72, 0x61, 0x79, 0x56,
  0x32, 0x53, 0x74, 0x61, 0x63, 0x6b, 0x2f, 0x54, 0x65, 0x6e, 0x73, 0x6f,
  0x72, 0x4c, 0x69, 0x73, 0x74, 0x53, 0x74, 0x61, 0x63, 0x6b, 0x3b, 0x53,
  0x74, 0x61, 0x74, 0x65, 0x66, 0x75, 0x6c, 0x50, 0x61, 0x72, 0x74, 0x69,
  0x74, 0x69, 0x6f, 0x6e, 0x65, 0x64, 0x43, 0x61, 0x6c, 0x6c, 0x2f, 0x73,
  0x65, 0x71, 0x75, 0x65, 0x6e, 0x74, 0x69, 0x61, 0x6c, 0x5f, 0x33, 0x2f,
  0x6c, 0x73, 0x74, 0x6d, 0x5f, 0x33, 0x2f, 0x53, 0x74, 0x61, 0x74, 0x65,
  0x66, 0x75, 0x6c, 0x50, 0x61, 0x72, 0x74, 0x69, 0x74, 0x69, 0x6f, 0x6e,
  0x65, 0x64, 0x43, 0x61, 0x6c, 0x6c, 0x2f, 0x54, 0x65, 0x6e, 0x73, 0x6f,
  0x72, 0x41, 0x72, 0x72, 0x61, 0x79, 0x56, 0x32, 0x53, 0x74, 0x61, 0x63,
  0x6b, 0x2f, 0x54, 0x65, 0x6e, 0x73, 0x6f, 0x72, 0x4c, 0x69, 0x73, 0x74,
  0x53, 0x74, 0x61, 0x63, 0x6b, 0x31, 0x00, 0x00, 0xec, 0xe4, 0xff, 0xff,
  0x00, 0x00, 0x0e, 0x00, 0x1a, 0x00, 0x08, 0x00, 0x0c, 0x00, 0x10, 0x00,
  0x07, 0x00, 0x14, 0x00, 0x0e, 0x00, 0x00, 0x00, 0x00, 0x00, 0x00, 0x37,
  0x02, 0x00, 0x00, 0x00, 0x24, 0x00, 0x00, 0x00, 0x18, 0x00, 0x00, 0x00,
  0x0c, 0x00, 0x00, 0x00, 0x00, 0x00, 0x06, 0x00, 0x08, 0x00, 0x07, 0x00,
  0x06, 0x00, 0x00, 0x00, 0x00, 0x00, 0x00, 0x02, 0x01, 0x00, 0x00, 0x00,
  0x25, 0x00, 0x00, 0x00, 0x01, 0x00, 0x00, 0x00, 0x16, 0x00, 0x00, 0x00,
  0x16, 0xf6, 0xff, 0xff, 0x00, 0x00, 0x00, 0x4d, 0x01, 0x00, 0x00, 0x00,
  0x9a, 0xea, 0xff, 0xff, 0x00, 0x00, 0x00, 0x02, 0x10, 0x00, 0x00, 0x00,
  0x26, 0x00, 0x00, 0x00, 0x0c, 0x00, 0x00, 0x00, 0x98, 0x00, 0x00, 0x00,
  0x00, 0x00, 0x00, 0x00, 0x89, 0x00, 0x00, 0x00, 0x54, 0x65, 0x6e, 0x73,
  0x6f, 0x72, 0x41, 0x72, 0x72, 0x61, 0x79, 0x56, 0x32, 0x53, 0x74, 0x61,
  0x63, 0x6b, 0x2f, 0x54, 0x65, 0x6e, 0x73, 0x6f, 0x72, 0x4c, 0x69, 0x73,
  0x74, 0x53, 0x74, 0x61, 0x63, 0x6b, 0x3b, 0x53, 0x74, 0x61, 0x74, 0x65,
  0x66, 0x75, 0x6c, 0x50, 0x61, 0x72, 0x74, 0x69, 0x74, 0x69, 0x6f, 0x6e,
  0x65, 0x64, 0x43, 0x61, 0x6c, 0x6c, 0x2f, 0x73, 0x65, 0x71, 0x75, 0x65,
  0x6e, 0x74, 0x69, 0x61, 0x6c, 0x5f, 0x33, 0x2f, 0x6c, 0x73, 0x74, 0x6d,
  0x5f, 0x33, 0x2f, 0x53, 0x74, 0x61, 0x74, 0x65, 0x66, 0x75, 0x6c, 0x50,
  0x61, 0x72, 0x74, 0x69, 0x74, 0x69, 0x6f, 0x6e, 0x65, 0x64, 0x43, 0x61,
  0x6c, 0x6c, 0x2f, 0x54, 0x65, 0x6e, 0x73, 0x6f, 0x72, 0x41, 0x72, 0x72,
  0x61, 0x79, 0x56, 0x32, 0x53, 0x74, 0x61, 0x63, 0x6b, 0x2f, 0x54, 0x65,
  0x6e, 0x73, 0x6f, 0x72, 0x4c, 0x69, 0x73, 0x74, 0x53, 0x74, 0x61, 0x63,
  0x6b, 0x00, 0x00, 0x00, 0xf0, 0xe5, 0xff, 0xff, 0x00, 0x00, 0x0e, 0x00,
  0x18, 0x00, 0x08, 0x00, 0x0c, 0x00, 0x10, 0x00, 0x07, 0x00, 0x14, 0x00,
  0x0e, 0x00, 0x00, 0x00, 0x00, 0x00, 0x00, 0x5d, 0x01, 0x00, 0x00, 0x00,
  0x54, 0x00, 0x00, 0x00, 0x08, 0x00, 0x00, 0x00, 0x9c, 0x00, 0x00, 0x00,
  0x11, 0x00, 0x00, 0x00, 0x14, 0x00, 0x00, 0x00, 0x15, 0x00, 0x00, 0x00,
  0x16, 0x00, 0x00, 0x00, 0x17, 0x00, 0x00, 0x00, 0x18, 0x00, 0x00, 0x00,
  0x19, 0x00, 0x00, 0x00, 0x1a, 0x00, 0x00, 0x00, 0x1b, 0x00, 0x00, 0x00,
  0x1c, 0x00, 0x00, 0x00, 0x1d, 0x00, 0x00, 0x00, 0x1e, 0x00, 0x00, 0x00,
  0x1f, 0x00, 0x00, 0x00, 0x20, 0x00, 0x00, 0x00, 0x21, 0x00, 0x00, 0x00,
  0x22, 0x00, 0x00, 0x00, 0x23, 0x00, 0x00, 0x00, 0x24, 0x00, 0x00, 0x00,
  0x11, 0x00, 0x00, 0x00, 0x08, 0x00, 0x00, 0x00, 0x08, 0x00, 0x00, 0x00,
  0x03, 0x00, 0x00, 0x00, 0x01, 0x00, 0x00, 0x00, 0x01, 0x00, 0x00, 0x00,
  0x13, 0x00, 0x00, 0x00, 0x04, 0x00, 0x00, 0x00, 0x06, 0x00, 0x00, 0x00,
  0x0b, 0x00, 0x00, 0x00, 0x13, 0x00, 0x00, 0x00, 0x0c, 0x00, 0x00, 0x00,
  0x02, 0x00, 0x00, 0x00, 0x11, 0x00, 0x00, 0x00, 0x08, 0x00, 0x00, 0x00,
  0x07, 0x00, 0x00, 0x00, 0x0a, 0x00, 0x00, 0x00, 0x09, 0x00, 0x00, 0x00,
  0x08, 0x00, 0x0c, 0x00, 0x04, 0x00, 0x08, 0x00, 0x08, 0x00, 0x00, 0x00,
  0x03, 0x00, 0x00, 0x00, 0x04, 0x00, 0x00, 0x00, 0x9e, 0xf7, 0xff, 0xff,
  0x00, 0x00, 0x00, 0x77, 0x01, 0x00, 0x00, 0x00, 0x22, 0xec, 0xff, 0xff,
  0x00, 0x00, 0x00, 0x02, 0x10, 0x00, 0x00, 0x00, 0x25, 0x00, 0x00, 0x00,
  0x10, 0x00, 0x00, 0x00, 0x64, 0x00, 0x00, 0x00, 0x01, 0x00, 0x00, 0x00,
  0x01, 0x00, 0x00, 0x00, 0x51, 0x00, 0x00, 0x00, 0x77, 0x68, 0x69, 0x6c,
  0x65, 0x3b, 0x53, 0x74, 0x61, 0x74, 0x65, 0x66, 0x75, 0x6c, 0x50, 0x61,
  0x72, 0x74, 0x69, 0x74, 0x69, 0x6f, 0x6e, 0x65, 0x64, 0x43, 0x61, 0x6c,
  0x6c, 0x2f, 0x73, 0x65, 0x71, 0x75, 0x65, 0x6e, 0x74, 0x69, 0x61, 0x6c,
  0x5f, 0x33, 0x2f, 0x6c, 0x73, 0x74, 0x6d, 0x5f, 0x33, 0x2f, 0x53, 0x74,
  0x61, 0x74, 0x65, 0x66, 0x75, 0x6c, 0x50, 0x61, 0x72, 0x74, 0x69, 0x74,
  0x69, 0x6f, 0x6e, 0x65, 0x64, 0x43, 0x61, 0x6c, 0x6c, 0x2f, 0x77, 0x68,
  0x69, 0x6c, 0x65, 0x31, 0x36, 0x00, 0x00, 0x00, 0xf0, 0xe6, 0xff, 0xff,
  0x9e, 0xec, 0xff, 0xff, 0x00, 0x00, 0x00, 0x02, 0x10, 0x00, 0x00, 0x00,
  0x24, 0x00, 0x00, 0x00, 0x0c, 0x00, 0x00, 0x00, 0x60, 0x00, 0x00, 0x00,
  0x00, 0x00, 0x00, 0x00, 0x51, 0x00, 0x00, 0x00, 0x77, 0x68, 0x69, 0x6c,
  0x65, 0x3b, 0x53, 0x74, 0x61, 0x74, 0x65, 0x66, 0x75, 0x6c, 0x50, 0x61,
  0x72, 0x74, 0x69, 0x74, 0x69, 0x6f, 0x6e, 0x65, 0x64, 0x43, 0x61, 0x6c,
  0x6c, 0x2f, 0x73, 0x65, 0x71, 0x75, 0x65, 0x6e, 0x74, 0x69, 0x61, 0x6c,
  0x5f, 0x33, 0x2f, 0x6c, 0x73, 0x74, 0x6d, 0x5f, 0x33, 0x2f, 0x53, 0x74,
  0x61, 0x74, 0x65, 0x66, 0x75, 0x6c, 0x50, 0x61, 0x72, 0x74, 0x69, 0x74,
  0x69, 0x6f, 0x6e, 0x65, 0x64, 0x43, 0x61, 0x6c, 0x6c, 0x2f, 0x77, 0x68,
  0x69, 0x6c, 0x65, 0x31, 0x35, 0x00, 0x00, 0x00, 0x68, 0xe7, 0xff, 0xff,
  0x16, 0xed, 0xff, 0xff, 0x00, 0x00, 0x00, 0x02, 0x10, 0x00, 0x00, 0x00,
  0x23, 0x00, 0x00, 0x00, 0x10, 0x00, 0x00, 0x00, 0x64, 0x00, 0x00, 0x00,
  0x01, 0x00, 0x00, 0x00, 0x01, 0x00, 0x00, 0x00, 0x51, 0x00, 0x00, 0x00,
  0x77, 0x68, 0x69, 0x6c, 0x65, 0x3b, 0x53, 0x74, 0x61, 0x74, 0x65, 0x66,
  0x75, 0x6c, 0x50, 0x61, 0x72, 0x74, 0x69, 0x74, 0x69, 0x6f, 0x6e, 0x65,
  0x64, 0x43, 0x61, 0x6c, 0x6c, 0x2f, 0x73, 0x65, 0x71, 0x75, 0x65, 0x6e,
  0x74, 0x69, 0x61, 0x6c, 0x5f, 0x33, 0x2f, 0x6c, 0x73, 0x74, 0x6d, 0x5f,
  0x33, 0x2f, 0x53, 0x74, 0x61, 0x74, 0x65, 0x66, 0x75, 0x6c, 0x50, 0x61,
  0x72, 0x74, 0x69, 0x74, 0x69, 0x6f, 0x6e, 0x65, 0x64, 0x43, 0x61, 0x6c,
  0x6c, 0x2f, 0x77, 0x68, 0x69, 0x6c, 0x65, 0x31, 0x34, 0x00, 0x00, 0x00,
  0xe4, 0xe7, 0xff, 0xff, 0x92, 0xed, 0xff, 0xff, 0x00, 0x00, 0x00, 0x02,
  0x10, 0x00, 0x00, 0x00, 0x22, 0x00, 0x00, 0x00, 0x0c, 0x00, 0x00, 0x00,
  0x60, 0x00, 0x00, 0x00, 0x00, 0x00, 0x00, 0x00, 0x51, 0x00, 0x00, 0x00,
  0x77, 0x68, 0x69, 0x6c, 0x65, 0x3b, 0x53, 0x74, 0x61, 0x74, 0x65, 0x66,
  0x75, 0x6c, 0x50, 0x61, 0x72, 0x74, 0x69, 0x74, 0x69, 0x6f, 0x6e, 0x65,
  0x64, 0x43, 0x61, 0x6c, 0x6c, 0x2f, 0x73, 0x65, 0x71, 0x75, 0x65, 0x6e,
  0x74, 0x69, 0x61, 0x6c, 0x5f, 0x33, 0x2f, 0x6c, 0x73, 0x74, 0x6d, 0x5f,
  0x33, 0x2f, 0x53, 0x74, 0x61, 0x74, 0x65, 0x66, 0x75, 0x6c, 0x50, 0x61,
  0x72, 0x74, 0x69, 0x74, 0x69, 0x6f, 0x6e, 0x65, 0x64, 0x43, 0x61, 0x6c,
  0x6c, 0x2f, 0x77, 0x68, 0x69, 0x6c, 0x65, 0x31, 0x33, 0x00, 0x00, 0x00,
  0x5c, 0xe8, 0xff, 0xff, 0x0a, 0xee, 0xff, 0xff, 0x00, 0x00, 0x00, 0x02,
  0x10, 0x00, 0x00, 0x00, 0x21, 0x00, 0x00, 0x00, 0x10, 0x00, 0x00, 0x00,
  0x64, 0x00, 0x00, 0x00, 0x01, 0x00, 0x00, 0x00, 0x01, 0x00, 0x00, 0x00,
  0x51, 0x00, 0x00, 0x00, 0x77, 0x68, 0x69, 0x6c, 0x65, 0x3b, 0x53, 0x74,
  0x61, 0x74, 0x65, 0x66, 0x75, 0x6c, 0x50, 0x61, 0x72, 0x74, 0x69, 0x74,
  0x69, 0x6f, 0x6e, 0x65, 0x64, 0x43, 0x61, 0x6c, 0x6c, 0x2f, 0x73, 0x65,
  0x71, 0x75, 0x65, 0x6e, 0x74, 0x69, 0x61, 0x6c, 0x5f, 0x33, 0x2f, 0x6c,
  0x73, 0x74, 0x6d, 0x5f, 0x33, 0x2f, 0x53, 0x74, 0x61, 0x74, 0x65, 0x66,
  0x75, 0x6c, 0x50, 0x61, 0x72, 0x74, 0x69, 0x74, 0x69, 0x6f, 0x6e, 0x65,
  0x64, 0x43, 0x61, 0x6c, 0x6c, 0x2f, 0x77, 0x68, 0x69, 0x6c, 0x65, 0x31,
  0x32, 0x00, 0x00, 0x00, 0xd8, 0xe8, 0xff, 0xff, 0x26, 0xe9, 0xff, 0xff,
  0x10, 0x00, 0x00, 0x00, 0x20, 0x00, 0x00, 0x00, 0x10, 0x00, 0x00, 0x00,
  0x64, 0x00, 0x00, 0x00, 0x01, 0x00, 0x00, 0x00, 0x20, 0x00, 0x00, 0x00,
  0x51, 0x00, 0x00, 0x00, 0x77, 0x68, 0x69, 0x6c, 0x65, 0x3b, 0x53, 0x74,
  0x61, 0x74, 0x65, 0x66, 0x75, 0x6c, 0x50, 0x61, 0x72, 0x74, 0x69, 0x74,
  0x69, 0x6f, 0x6e, 0x65, 0x64, 0x43, 0x61, 0x6c, 0x6c, 0x2f, 0x73, 0x65,
  0x71, 0x75, 0x65, 0x6e, 0x74, 0x69, 0x61, 0x6c, 0x5f, 0x33, 0x2f, 0x6c,
  0x73, 0x74, 0x6d, 0x5f, 0x33, 0x2f, 0x53, 0x74, 0x61, 0x74, 0x65, 0x66,
  0x75, 0x6c, 0x50, 0x61, 0x72, 0x74, 0x69, 0x74, 0x69, 0x6f, 0x6e, 0x65,
  0x64, 0x43, 0x61, 0x6c, 0x6c, 0x2f, 0x77, 0x68, 0x69, 0x6c, 0x65, 0x31,
  0x31, 0x00, 0x00, 0x00, 0x50, 0xe9, 0xff, 0xff, 0x9e, 0xe9, 0xff, 0xff,
  0x10, 0x00, 0x00, 0x00, 0x1f, 0x00, 0x00, 0x00, 0x14, 0x00, 0x00, 0x00,
  0x68, 0x00, 0x00, 0x00, 0x02, 0x00, 0x00, 0x00, 0x20, 0x00, 0x00, 0x00,
  0x01, 0x00, 0x00, 0x00, 0x51, 0x00, 0x00, 0x00, 0x77, 0x68, 0x69, 0x6c,
  0x65, 0x3b, 0x53, 0x74, 0x61, 0x74, 0x65, 0x66, 0x75, 0x6c, 0x50, 0x61,
  0x72, 0x74, 0x69, 0x74, 0x69, 0x6f, 0x6e, 0x65, 0x64, 0x43, 0x61, 0x6c,
  0x6c, 0x2f, 0x73, 0x65, 0x71, 0x75, 0x65, 0x6e, 0x74, 0x69, 0x61, 0x6c,
  0x5f, 0x33, 0x2f, 0x6c, 0x73, 0x74, 0x6d, 0x5f, 0x33, 0x2f, 0x53, 0x74,
  0x61, 0x74, 0x65, 0x66, 0x75, 0x6c, 0x50, 0x61, 0x72, 0x74, 0x69, 0x74,
  0x69, 0x6f, 0x6e, 0x65, 0x64, 0x43, 0x61, 0x6c, 0x6c, 0x2f, 0x77, 0x68,
  0x69, 0x6c, 0x65, 0x31, 0x30, 0x00, 0x00, 0x00, 0xcc, 0xe9, 0xff, 0xff,
  0x1a, 0xea, 0xff, 0xff, 0x10, 0x00, 0x00, 0x00, 0x1e, 0x00, 0x00, 0x00,
  0x18, 0x00, 0x00, 0x00, 0x6c, 0x00, 0x00, 0x00, 0x03, 0x00, 0x00, 0x00,
  0x14, 0x00, 0x00, 0x00, 0x01, 0x00, 0x00, 0x00, 0x01, 0x00, 0x00, 0x00,
  0x50, 0x00, 0x00, 0x00, 0x77, 0x68, 0x69, 0x6c, 0x65, 0x3b, 0x53, 0x74,
  0x61, 0x74, 0x65, 0x66, 0x75, 0x6c, 0x50, 0x61, 0x72, 0x74, 0x69, 0x74,
  0x69, 0x6f, 0x6e, 0x65, 0x64, 0x43, 0x61, 0x6c, 0x6c, 0x2f, 0x73, 0x65,
  0x71, 0x75, 0x65, 0x6e, 0x74, 0x69, 0x61, 0x6c, 0x5f, 0x33, 0x2f, 0x6c,
  0x73, 0x74, 0x6d, 0x5f, 0x33, 0x2f, 0x53, 0x74, 0x61, 0x74, 0x65, 0x66,
  0x75, 0x6c, 0x50, 0x61, 0x72, 0x74, 0x69, 0x74, 0x69, 0x6f, 0x6e, 0x65,
  0x64, 0x43, 0x61, 0x6c, 0x6c, 0x2f, 0x77, 0x68, 0x69, 0x6c, 0x65, 0x39,
  0x00, 0x00, 0x00, 0x00, 0x4c, 0xea, 0xff, 0xff, 0x9a, 0xea, 0xff, 0xff,
  0x10, 0x00, 0x00, 0x00, 0x1d, 0x00, 0x00, 0x00, 0x14, 0x00, 0x00, 0x00,
  0x68, 0x00, 0x00, 0x00, 0x02, 0x00, 0x00, 0x00, 0x20, 0x00, 0x00, 0x00,
  0x08, 0x00, 0x00, 0x00, 0x50, 0x00, 0x00, 0x00, 0x77, 0x68, 0x69, 0x6c,
  0x65, 0x3b, 0x53, 0x74, 0x61, 0x74, 0x65, 0x66, 0x75, 0x6c, 0x50, 0x61,
  0x72, 0x74, 0x69, 0x74, 0x69, 0x6f, 0x6e, 0x65, 0x64, 0x43, 0x61, 0x6c,
  0x6c, 0x2f, 0x73, 0x65, 0x71, 0x75, 0x65, 0x6e, 0x74, 0x69, 0x61, 0x6c,
  0x5f, 0x33, 0x2f, 0x6c, 0x73, 0x74, 0x6d, 0x5f, 0x33, 0x2f, 0x53, 0x74,
  0x61, 0x74, 0x65, 0x66, 0x75, 0x6c, 0x50, 0x61, 0x72, 0x74, 0x69, 0x74,
  0x69, 0x6f, 0x6e, 0x65, 0x64, 0x43, 0x61, 0x6c, 0x6c, 0x2f, 0x77, 0x68,
  0x69, 0x6c, 0x65, 0x38, 0x00, 0x00, 0x00, 0x00, 0xc8, 0xea, 0xff, 0xff,
  0x76, 0xf0, 0xff, 0xff, 0x00, 0x00, 0x00, 0x02, 0x10, 0x00, 0x00, 0x00,
  0x1c, 0x00, 0x00, 0x00, 0x0c, 0x00, 0x00, 0x00, 0x60, 0x00, 0x00, 0x00,
  0x00, 0x00, 0x00, 0x00, 0x50, 0x00, 0x00, 0x00, 0x77, 0x68, 0x69, 0x6c,
  0x65, 0x3b, 0x53, 0x74, 0x61, 0x74, 0x65, 0x66, 0x75, 0x6c, 0x50, 0x61,
  0x72, 0x74, 0x69, 0x74, 0x69, 0x6f, 0x6e, 0x65, 0x64, 0x43, 0x61, 0x6c,
  0x6c, 0x2f, 0x73, 0x65, 0x71, 0x75, 0x65, 0x6e, 0x74, 0x69, 0x61, 0x6c,
  0x5f, 0x33, 0x2f, 0x6c, 0x73, 0x74, 0x6d, 0x5f, 0x33, 0x2f, 0x53, 0x74,
  0x61, 0x74, 0x65, 0x66, 0x75, 0x6c, 0x50, 0x61, 0x72, 0x74, 0x69, 0x74,
  0x69, 0x6f, 0x6e, 0x65, 0x64, 0x43, 0x61, 0x6c, 0x6c, 0x2f, 0x77, 0x68,
  0x69, 0x6c, 0x65, 0x37, 0x00, 0x00, 0x00, 0x00, 0x40, 0xeb, 0xff, 0xff,
  0xee, 0xf0, 0xff, 0xff, 0x00, 0x00, 0x00, 0x02, 0x10, 0x00, 0x00, 0x00,
  0x1b, 0x00, 0x00, 0x00, 0x0c, 0x00, 0x00, 0x00, 0x60, 0x00, 0x00, 0x00,
  0x00, 0x00, 0x00, 0x00, 0x50, 0x00, 0x00, 0x00, 0x77, 0x68, 0x69, 0x6c,
  0x65, 0x3b, 0x53, 0x74, 0x61, 0x74, 0x65, 0x66, 0x75, 0x6c, 0x50, 0x61,
  0x72, 0x74, 0x69, 0x74, 0x69, 0x6f, 0x6e, 0x65, 0x64, 0x43, 0x61, 0x6c,
  0x6c, 0x2f, 0x73, 0x65, 0x71, 0x75, 0x65, 0x6e, 0x74, 0x69, 0x61, 0x6c,
  0x5f, 0x33, 0x2f, 0x6c, 0x73, 0x74, 0x6d, 0x5f, 0x33, 0x2f, 0x53, 0x74,
  0x61, 0x74, 0x65, 0x66, 0x75, 0x6c, 0x50, 0x61, 0x72, 0x74, 0x69, 0x74,
  0x69, 0x6f, 0x6e, 0x65, 0x64, 0x43, 0x61, 0x6c, 0x6c, 0x2f, 0x77, 0x68,
  0x69, 0x6c, 0x65, 0x36, 0x00, 0x00, 0x00, 0x00, 0xb8, 0xeb, 0xff, 0xff,
  0x06, 0xec, 0xff, 0xff, 0x10, 0x00, 0x00, 0x00, 0x1a, 0x00, 0x00, 0x00,
  0x18, 0x00, 0x00, 0x00, 0x6c, 0x00, 0x00, 0x00, 0x03, 0x00, 0x00, 0x00,
  0x14, 0x00, 0x00, 0x00, 0x01, 0x00, 0x00, 0x00, 0x01, 0x00, 0x00, 0x00,
  0x50, 0x00, 0x00, 0x00, 0x77, 0x68, 0x69, 0x6c, 0x65, 0x3b, 0x53, 0x74,
  0x61, 0x74, 0x65, 0x66, 0x75, 0x6c, 0x50, 0x61, 0x72, 0x74, 0x69, 0x74,
  0x69, 0x6f, 0x6e, 0x65, 0x64, 0x43, 0x61, 0x6c, 0x6c, 0x2f, 0x73, 0x65,
  0x71, 0x75, 0x65, 0x6e, 0x74, 0x69, 0x61, 0x6c, 0x5f, 0x33, 0x2f, 0x6c,
  0x73, 0x74, 0x6d, 0x5f, 0x33, 0x2f, 0x53, 0x74, 0x61, 0x74, 0x65, 0x66,
  0x75, 0x6c, 0x50, 0x61, 0x72, 0x74, 0x69, 0x74, 0x69, 0x6f, 0x6e, 0x65,
  0x64, 0x43, 0x61, 0x6c, 0x6c, 0x2f, 0x77, 0x68, 0x69, 0x6c, 0x65, 0x35,
  0x00, 0x00, 0x00, 0x00, 0x38, 0xec, 0xff, 0xff, 0x86, 0xec, 0xff, 0xff,
  0x10, 0x00, 0x00, 0x00, 0x19, 0x00, 0x00, 0x00, 0x14, 0x00, 0x00, 0x00,
  0x68, 0x00, 0x00, 0x00, 0x02, 0x00, 0x00, 0x00, 0x01, 0x00, 0x00, 0x00,
  0x08, 0x00, 0x00, 0x00, 0x50, 0x00, 0x00, 0x00, 0x77, 0x68, 0x69, 0x6c,
  0x65, 0x3b, 0x53, 0x74, 0x61, 0x74, 0x65, 0x66, 0x75, 0x6c, 0x50, 0x61,
  0x72, 0x74, 0x69, 0x74, 0x69, 0x6f, 0x6e, 0x65, 0x64, 0x43, 0x61, 0x6c,
  0x6c, 0x2f, 0x73, 0x65, 0x71, 0x75, 0x65, 0x6e, 0x74, 0x69, 0x61, 0x6c,
  0x5f, 0x33, 0x2f, 0x6c, 0x73, 0x74, 0x6d, 0x5f, 0x33, 0x2f, 0x53, 0x74,
  0x61, 0x74, 0x65, 0x66, 0x75, 0x6c, 0x50, 0x61, 0x72, 0x74, 0x69, 0x74,
  0x69, 0x6f, 0x6e, 0x65, 0x64, 0x43, 0x61, 0x6c, 0x6c, 0x2f, 0x77, 0x68,
  0x69, 0x6c, 0x65, 0x34, 0x00, 0x00, 0x00, 0x00, 0xb4, 0xec, 0xff, 0xff,
  0x02, 0xed, 0xff, 0xff, 0x10, 0x00, 0x00, 0x00, 0x18, 0x00, 0x00, 0x00,
  0x14, 0x00, 0x00, 0x00, 0x68, 0x00, 0x00, 0x00, 0x02, 0x00, 0x00, 0x00,
  0x01, 0x00, 0x00, 0x00, 0x08, 0x00, 0x00, 0x00, 0x50, 0x00, 0x00, 0x00,
  0x77, 0x68, 0x69, 0x6c, 0x65, 0x3b, 0x53, 0x74, 0x61, 0x74, 0x65, 0x66,
  0x75, 0x6c, 0x50, 0x61, 0x72, 0x74, 0x69, 0x74, 0x69, 0x6f, 0x6e, 0x65,
  0x64, 0x43, 0x61, 0x6c, 0x6c, 0x2f, 0x73, 0x65, 0x71, 0x75, 0x65, 0x6e,
  0x74, 0x69, 0x61, 0x6c, 0x5f, 0x33, 0x2f, 0x6c, 0x73, 0x74, 0x6d, 0x5f,
  0x33, 0x2f, 0x53, 0x74, 0x61, 0x74, 0x65, 0x66, 0x75, 0x6c, 0x50, 0x61,
