unsigned char _home_mrrumpf_build_planb_vscode_template_linux_models_model_no_quant_tflite[] = {
  0x1c, 0x00, 0x00, 0x00, 0x54, 0x46, 0x4c, 0x33, 0x00, 0x00, 0x12, 0x00,
  0x1c, 0x00, 0x04, 0x00, 0x08, 0x00, 0x0c, 0x00, 0x10, 0x00, 0x14, 0x00,
  0x00, 0x00, 0x18, 0x00, 0x12, 0x00, 0x00, 0x00, 0x03, 0x00, 0x00, 0x00,
  0x14, 0x00, 0x00, 0x00, 0x18, 0x00, 0x00, 0x00, 0xa0, 0x00, 0x00, 0x00,
  0x18, 0x00, 0x00, 0x00, 0x48, 0x00, 0x00, 0x00, 0x01, 0x00, 0x00, 0x00,
  0xf0, 0x02, 0x00, 0x00, 0x01, 0x00, 0x00, 0x00, 0xac, 0x00, 0x00, 0x00,
  0x0c, 0x00, 0x00, 0x00, 0x14, 0x0c, 0x00, 0x00, 0x10, 0x0c, 0x00, 0x00,
  0x04, 0x0b, 0x00, 0x00, 0x40, 0x0a, 0x00, 0x00, 0xc0, 0x09, 0x00, 0x00,
  0xf4, 0x08, 0x00, 0x00, 0x68, 0x04, 0x00, 0x00, 0x9c, 0x03, 0x00, 0x00,
  0xf4, 0x0b, 0x00, 0x00, 0xf0, 0x0b, 0x00, 0x00, 0xec, 0x0b, 0x00, 0x00,
  0x38, 0x00, 0x00, 0x00, 0x01, 0x00, 0x00, 0x00, 0x0c, 0x00, 0x00, 0x00,
  0x08, 0x00, 0x0c, 0x00, 0x04, 0x00, 0x08, 0x00, 0x08, 0x00, 0x00, 0x00,
  0x08, 0x00, 0x00, 0x00, 0x0b, 0x00, 0x00, 0x00, 0x13, 0x00, 0x00, 0x00,
  0x6d, 0x69, 0x6e, 0x5f, 0x72, 0x75, 0x6e, 0x74, 0x69, 0x6d, 0x65, 0x5f,
  0x76, 0x65, 0x72, 0x73, 0x69, 0x6f, 0x6e, 0x00, 0x5e, 0xf5, 0xff, 0xff,
  0x04, 0x00, 0x00, 0x00, 0x10, 0x00, 0x00, 0x00, 0x31, 0x2e, 0x35, 0x2e,
  0x30, 0x00, 0x00, 0x00, 0x00, 0x00, 0x00, 0x00, 0x00, 0x00, 0x00, 0x00,
  0x0f, 0x00, 0x00, 0x00, 0x4d, 0x4c, 0x49, 0x52, 0x20, 0x43, 0x6f, 0x6e,
  0x76, 0x65, 0x72, 0x74, 0x65, 0x64, 0x2e, 0x00, 0x00, 0x00, 0x0e, 0x00,
  0x18, 0x00, 0x04, 0x00, 0x08, 0x00, 0x0c, 0x00, 0x10, 0x00, 0x14, 0x00,
  0x0e, 0x00, 0x00, 0x00, 0x14, 0x00, 0x00, 0x00, 0x3c, 0x00, 0x00, 0x00,
  0x40, 0x00, 0x00, 0x00, 0x44, 0x00, 0x00, 0x00, 0x50, 0x00, 0x00, 0x00,
  0x0a, 0x00, 0x00, 0x00, 0x18, 0x0b, 0x00, 0x00, 0x94, 0x0a, 0x00, 0x00,
  0xd0, 0x09, 0x00, 0x00, 0x14, 0x09, 0x00, 0x00, 0x84, 0x08, 0x00, 0x00,
  0xb8, 0x07, 0x00, 0x00, 0x2c, 0x03, 0x00, 0x00, 0x10, 0x02, 0x00, 0x00,
  0xdc, 0x00, 0x00, 0x00, 0x60, 0x00, 0x00, 0x00, 0x01, 0x00, 0x00, 0x00,
  0x00, 0x00, 0x00, 0x00, 0x01, 0x00, 0x00, 0x00, 0x09, 0x00, 0x00, 0x00,
  0x03, 0x00, 0x00, 0x00, 0x9c, 0x01, 0x00, 0x00, 0x88, 0x00, 0x00, 0x00,
  0x10, 0x00, 0x00, 0x00, 0x04, 0x00, 0x00, 0x00, 0x6d, 0x61, 0x69, 0x6e,
  0x00, 0x00, 0x00, 0x00, 0x9a, 0xff, 0xff, 0xff, 0x00, 0x00, 0x00, 0x08,
  0x18, 0x00, 0x00, 0x00, 0x0c, 0x00, 0x00, 0x00, 0x04, 0x00, 0x00, 0x00,
  0x18, 0xf5, 0xff, 0xff, 0x01, 0x00, 0x00, 0x00, 0x09, 0x00, 0x00, 0x00,
  0x03, 0x00, 0x00, 0x00, 0x08, 0x00, 0x00, 0x00, 0x06, 0x00, 0x00, 0x00,
  0x03, 0x00, 0x00, 0x00, 0x7a, 0xf5, 0xff, 0xff, 0x10, 0x00, 0x00, 0x00,
  0x0a, 0x00, 0x00, 0x00, 0x14, 0x00, 0x00, 0x00, 0x20, 0x00, 0x00, 0x00,
  0x02, 0x00, 0x00, 0x00, 0x01, 0x00, 0x00, 0x00, 0x01, 0x00, 0x00, 0x00,
  0x08, 0x00, 0x00, 0x00, 0x49, 0x64, 0x65, 0x6e, 0x74, 0x69, 0x74, 0x79,
  0x00, 0x00, 0x00, 0x00, 0xb4, 0xf5, 0xff, 0xff, 0x00, 0x00, 0x0e, 0x00,
  0x14, 0x00, 0x00, 0x00, 0x08, 0x00, 0x0c, 0x00, 0x07, 0x00, 0x10, 0x00,
  0x0e, 0x00, 0x00, 0x00, 0x00, 0x00, 0x00, 0x08, 0x1c, 0x00, 0x00, 0x00,
  0x10, 0x00, 0x00, 0x00, 0x04, 0x00, 0x00, 0x00, 0xee, 0xfe, 0xff, 0xff,
  0x00, 0x00, 0x00, 0x01, 0x01, 0x00, 0x00, 0x00, 0x08, 0x00, 0x00, 0x00,
  0x03, 0x00, 0x00, 0x00, 0x07, 0x00, 0x00, 0x00, 0x05, 0x00, 0x00, 0x00,
  0x02, 0x00, 0x00, 0x00, 0xf2, 0xf5, 0xff, 0xff, 0x10, 0x00, 0x00, 0x00,
  0x09, 0x00, 0x00, 0x00, 0x14, 0x00, 0x00, 0x00, 0xb8, 0x00, 0x00, 0x00,
  0x02, 0x00, 0x00, 0x00, 0x01, 0x00, 0x00, 0x00, 0x10, 0x00, 0x00, 0x00,
  0xa1, 0x00, 0x00, 0x00, 0x73, 0x65, 0x71, 0x75, 0x65, 0x6e, 0x74, 0x69,
  0x61, 0x6c, 0x5f, 0x38, 0x2f, 0x64, 0x65, 0x6e, 0x73, 0x65, 0x5f, 0x31,
  0x38, 0x2f, 0x52, 0x65, 0x6c, 0x75, 0x3b, 0x53, 0x74, 0x61, 0x74, 0x65,
  0x66, 0x75, 0x6c, 0x50, 0x61, 0x72, 0x74, 0x69, 0x74, 0x69, 0x6f, 0x6e,
  0x65, 0x64, 0x43, 0x61, 0x6c, 0x6c, 0x2f, 0x73, 0x65, 0x71, 0x75, 0x65,
  0x6e, 0x74, 0x69, 0x61, 0x6c, 0x5f, 0x38, 0x2f, 0x64, 0x65, 0x6e, 0x73,
  0x65, 0x5f, 0x31, 0x38, 0x2f, 0x52, 0x65, 0x6c, 0x75, 0x3b, 0x73, 0x65,
  0x71, 0x75, 0x65, 0x6e, 0x74, 0x69, 0x61, 0x6c, 0x5f, 0x38, 0x2f, 0x64,
  0x65, 0x6e, 0x73, 0x65, 0x5f, 0x31, 0x38, 0x2f, 0x42, 0x69, 0x61, 0x73,
  0x41, 0x64, 0x64, 0x3b, 0x53, 0x74, 0x61, 0x74, 0x65, 0x66, 0x75, 0x6c,
  0x50, 0x61, 0x72, 0x74, 0x69, 0x74, 0x69, 0x6f, 0x6e, 0x65, 0x64, 0x43,
  0x61, 0x6c, 0x6c, 0x2f, 0x73, 0x65, 0x71, 0x75, 0x65, 0x6e, 0x74, 0x69,
  0x61, 0x6c, 0x5f, 0x38, 0x2f, 0x64, 0x65, 0x6e, 0x73, 0x65, 0x5f, 0x31,
  0x38, 0x2f, 0x42, 0x69, 0x61, 0x73, 0x41, 0x64, 0x64, 0x00, 0x00, 0x00,
  0xc4, 0xf6, 0xff, 0xff, 0x00, 0x00, 0x0e, 0x00, 0x16, 0x00, 0x00, 0x00,
  0x08, 0x00, 0x0c, 0x00, 0x07, 0x00, 0x10, 0x00, 0x0e, 0x00, 0x00, 0x00,
  0x00, 0x00, 0x00, 0x08, 0x24, 0x00, 0x00, 0x00, 0x18, 0x00, 0x00, 0x00,
  0x0c, 0x00, 0x00, 0x00, 0x00, 0x00, 0x06, 0x00, 0x08, 0x00, 0x07, 0x00,
  0x06, 0x00, 0x00, 0x00, 0x00, 0x00, 0x00, 0x01, 0x01, 0x00, 0x00, 0x00,
  0x07, 0x00, 0x00, 0x00, 0x03, 0x00, 0x00, 0x00, 0x00, 0x00, 0x00, 0x00,
  0x04, 0x00, 0x00, 0x00, 0x01, 0x00, 0x00, 0x00, 0x00, 0x00, 0x0a, 0x00,
  0x0c, 0x00, 0x07, 0x00, 0x00, 0x00, 0x08, 0x00, 0x0a, 0x00, 0x00, 0x00,
  0x00, 0x00, 0x00, 0x09, 0x01, 0x00, 0x00, 0x00, 0x22, 0xf7, 0xff, 0xff,
  0x10, 0x00, 0x00, 0x00, 0x08, 0x00, 0x00, 0x00, 0x14, 0x00, 0x00, 0x00,
  0xb8, 0x00, 0x00, 0x00, 0x02, 0x00, 0x00, 0x00, 0x01, 0x00, 0x00, 0x00,
  0x10, 0x00, 0x00, 0x00, 0xa1, 0x00, 0x00, 0x00, 0x73, 0x65, 0x71, 0x75,
  0x65, 0x6e, 0x74, 0x69, 0x61, 0x6c, 0x5f, 0x38, 0x2f, 0x64, 0x65, 0x6e,
  0x73, 0x65, 0x5f, 0x31, 0x37, 0x2f, 0x52, 0x65, 0x6c, 0x75, 0x3b, 0x53,
  0x74, 0x61, 0x74, 0x65, 0x66, 0x75, 0x6c, 0x50, 0x61, 0x72, 0x74, 0x69,
  0x74, 0x69, 0x6f, 0x6e, 0x65, 0x64, 0x43, 0x61, 0x6c, 0x6c, 0x2f, 0x73,
  0x65, 0x71, 0x75, 0x65, 0x6e, 0x74, 0x69, 0x61, 0x6c, 0x5f, 0x38, 0x2f,
  0x64, 0x65, 0x6e, 0x73, 0x65, 0x5f, 0x31, 0x37, 0x2f, 0x52, 0x65, 0x6c,
  0x75, 0x3b, 0x73, 0x65, 0x71, 0x75, 0x65, 0x6e, 0x74, 0x69, 0x61, 0x6c,
  0x5f, 0x38, 0x2f, 0x64, 0x65, 0x6e, 0x73, 0x65, 0x5f, 0x31, 0x37, 0x2f,
  0x42, 0x69, 0x61, 0x73, 0x41, 0x64, 0x64, 0x3b, 0x53, 0x74, 0x61, 0x74,
  0x65, 0x66, 0x75, 0x6c, 0x50, 0x61, 0x72, 0x74, 0x69, 0x74, 0x69, 0x6f,
  0x6e, 0x65, 0x64, 0x43, 0x61, 0x6c, 0x6c, 0x2f, 0x73, 0x65, 0x71, 0x75,
  0x65, 0x6e, 0x74, 0x69, 0x61, 0x6c, 0x5f, 0x38, 0x2f, 0x64, 0x65, 0x6e,
  0x73, 0x65, 0x5f, 0x31, 0x37, 0x2f, 0x42, 0x69, 0x61, 0x73, 0x41, 0x64,
  0x64, 0x00, 0x00, 0x00, 0xa4, 0xf7, 0xff, 0xff, 0xb2, 0xf8, 0xff, 0xff,
  0x04, 0x00, 0x00, 0x00, 0x40, 0x00, 0x00, 0x00, 0x20, 0x1d, 0xd8, 0x3c,
  0x2f, 0x85, 0x11, 0xbd, 0xd4, 0xd9, 0x4a, 0x3e, 0x94, 0xb1, 0xa0, 0xbe,
  0x28, 0x6b, 0xf9, 0x3d, 0xb1, 0x84, 0x5b, 0xbe, 0xcc, 0xf1, 0xb7, 0x3e,
  0x1b, 0x97, 0x0b, 0x3e, 0x07, 0x30, 0xa4, 0xbd, 0x2e, 0x09, 0x1f, 0x3e,
  0xd8, 0x01, 0xa5, 0x3d, 0xa2, 0xe0, 0x95, 0xbd, 0x38, 0xd7, 0x8a, 0xbe,
  0xb2, 0x7e, 0xcc, 0xbe, 0xe2, 0x39, 0x6f, 0x3d, 0xd8, 0xc5, 0xfe, 0x3d,
  0x3a, 0xf8, 0xff, 0xff, 0x10, 0x00, 0x00, 0x00, 0x07, 0x00, 0x00, 0x00,
  0x14, 0x00, 0x00, 0x00, 0x68, 0x00, 0x00, 0x00, 0x02, 0x00, 0x00, 0x00,
  0x01, 0x00, 0x00, 0x00, 0x10, 0x00, 0x00, 0x00, 0x51, 0x00, 0x00, 0x00,
  0x73, 0x65, 0x71, 0x75, 0x65, 0x6e, 0x74, 0x69, 0x61, 0x6c, 0x5f, 0x38,
  0x2f, 0x64, 0x65, 0x6e, 0x73, 0x65, 0x5f, 0x31, 0x39, 0x2f, 0x4d, 0x61,
  0x74, 0x4d, 0x75, 0x6c, 0x3b, 0x53, 0x74, 0x61, 0x74, 0x65, 0x66, 0x75,
  0x6c, 0x50, 0x61, 0x72, 0x74, 0x69, 0x74, 0x69, 0x6f, 0x6e, 0x65, 0x64,
  0x43, 0x61, 0x6c, 0x6c, 0x2f, 0x73, 0x65, 0x71, 0x75, 0x65, 0x6e, 0x74,
  0x69, 0x61, 0x6c, 0x5f, 0x38, 0x2f, 0x64, 0x65, 0x6e, 0x73, 0x65, 0x5f,
  0x31, 0x39, 0x2f, 0x4d, 0x61, 0x74, 0x4d, 0x75, 0x6c, 0x00, 0x00, 0x00,
  0x6c, 0xf8, 0xff, 0xff, 0x7a, 0xf9, 0xff, 0xff, 0x04, 0x00, 0x00, 0x00,
  0x00, 0x04, 0x00, 0x00, 0x92, 0x68, 0x33, 0xbe, 0xfc, 0x76, 0xcb, 0x3d,
  0xe0, 0xe1, 0xc1, 0x3c, 0xd6, 0x9d, 0x67, 0xbe, 0xd8, 0xb3, 0x69, 0xbd,
  0xa4, 0x0c, 0x2c, 0xbe, 0xd0, 0x6d, 0x6c, 0xbe, 0x53, 0x9e, 0x80, 0x3e,
  0x5b, 0xc5, 0xc2, 0x3e, 0x3c, 0x1a, 0xc7, 0xbe, 0x4b, 0xef, 0x7e, 0xbe,
  0x42, 0x7c, 0x3c, 0x3e, 0x5c, 0x1f, 0xbc, 0x3d, 0x76, 0x9f, 0x2f, 0xbe,
  0x1e, 0xa4, 0x01, 0x3e, 0x30, 0x9f, 0xcd, 0xbc, 0x16, 0xf5, 0x8a, 0x3e,
  0x48, 0x3b, 0x30, 0xbc, 0x1d, 0x37, 0xbf, 0xbe, 0x75, 0x6e, 0x4d, 0xbe,
  0x36, 0xd1, 0x1e, 0xbe, 0x56, 0x54, 0x32, 0x3d, 0xdf, 0xcf, 0x2e, 0x3e,
  0xfd, 0x1a, 0x15, 0xbf, 0x14, 0xce, 0xa5, 0x3d, 0xfe, 0xa4, 0x1b, 0x3c,
  0x52, 0xc0, 0x1e, 0x3e, 0x38, 0x73, 0x80, 0xbe, 0x54, 0xdc, 0xdd, 0xbd,
  0x43, 0xd5, 0xb0, 0x3d, 0xd3, 0xbd, 0xd5, 0xbe, 0x42, 0x06, 0x7d, 0x3e,
  0xe5, 0x33, 0xbf, 0xbd, 0x62, 0x55, 0x7f, 0xbe, 0xd0, 0xff, 0xdc, 0xbd,
  0x9c, 0x04, 0x03, 0x3d, 0x72, 0xac, 0x5b, 0x3e, 0xab, 0xd1, 0x63, 0x3e,
  0x67, 0x1f, 0x7d, 0xbe, 0x71, 0x80, 0x5a, 0x3e, 0xfe, 0x75, 0x24, 0x3e,
  0xa3, 0xc3, 0xad, 0xbe, 0x52, 0x64, 0x98, 0xbe, 0xe9, 0x86, 0x94, 0xbe,
  0x7c, 0xb4, 0xfd, 0x3d, 0x18, 0x03, 0xa2, 0xbe, 0xb8, 0xe4, 0xc3, 0xbd,
  0x98, 0xf8, 0x01, 0x3c, 0xde, 0xb4, 0x43, 0xbe, 0x57, 0x8b, 0x74, 0x3e,
  0x3b, 0x13, 0x53, 0xbc, 0x80, 0x15, 0x49, 0xbd, 0x0c, 0x67, 0x92, 0x3d,
  0x9b, 0xcf, 0x1e, 0x3e, 0x22, 0x2b, 0x9a, 0x3e, 0x8d, 0x76, 0x26, 0xbe,
  0xb7, 0x8e, 0xd1, 0x3e, 0xb7, 0x95, 0x49, 0xbe, 0x13, 0x53, 0x82, 0x3e,
  0x94, 0xfe, 0x82, 0x3e, 0xcc, 0x15, 0xa4, 0x3d, 0x61, 0x71, 0x3d, 0xbe,
  0xc3, 0xc9, 0x8d, 0xbe, 0xe5, 0xd0, 0x76, 0x3e, 0x56, 0xa1, 0x4f, 0xbe,
  0x7e, 0xda, 0x15, 0xbe, 0x13, 0x59, 0xce, 0xbe, 0xe0, 0xff, 0x71, 0xbd,
  0x37, 0xab, 0xcc, 0x3e, 0x92, 0xc1, 0x7d, 0x3e, 0x8a, 0xe7, 0x94, 0xbe,
  0xff, 0x9a, 0x60, 0xbe, 0xa4, 0x2a, 0x1a, 0xbe, 0x60, 0x13, 0x91, 0xbe,
  0x05, 0x35, 0xb1, 0x3e, 0x79, 0x78, 0xb8, 0x3e, 0x4e, 0xef, 0xd9, 0xbe,
  0xa4, 0x2a, 0xc1, 0x3d, 0xca, 0x30, 0xc4, 0xbe, 0x46, 0xc8, 0x82, 0xbe,
  0x60, 0x8d, 0x13, 0xbc, 0x2a, 0x4c, 0x11, 0x3e, 0x1f, 0x80, 0xdd, 0xbe,
  0x68, 0xad, 0xd5, 0xbd, 0x7a, 0x69, 0x04, 0xbe, 0xde, 0xd9, 0xdd, 0xbe,
  0x1b, 0xf2, 0xa0, 0xbe, 0x88, 0xa0, 0x5e, 0x3d, 0xeb, 0x81, 0xb0, 0x3e,
  0x03, 0x89, 0x87, 0xbd, 0xd0, 0x2e, 0x6f, 0xbd, 0xc6, 0xec, 0xa0, 0x3e,
  0x0f, 0x07, 0xd9, 0x3e, 0x80, 0xf0, 0xb3, 0xbe, 0x3c, 0xd6, 0x7e, 0xbe,
  0xe8, 0x06, 0xd8, 0xbd, 0x00, 0xa0, 0x5a, 0xbe, 0x00, 0x63, 0xc7, 0xbd,
  0x60, 0xfc, 0x7c, 0x3c, 0x24, 0x73, 0xbd, 0xbe, 0xcd, 0x46, 0xbb, 0x3e,
  0x6b, 0xfb, 0xca, 0x3e, 0xba, 0xda, 0x46, 0x3e, 0x44, 0x67, 0x93, 0xbd,
  0x76, 0xcb, 0x7e, 0xbe, 0x81, 0xa1, 0x9f, 0xbe, 0x68, 0x45, 0x50, 0x3d,
  0x76, 0x29, 0xdc, 0xbe, 0x4b, 0x43, 0xb8, 0x3e, 0x1e, 0xee, 0x63, 0x3e,
  0xfe, 0xc0, 0x50, 0x3e, 0xc7, 0xf7, 0x82, 0x3e, 0x5c, 0xfe, 0x80, 0xbe,
  0xb8, 0x0d, 0x4d, 0xbe, 0x4f, 0x10, 0x91, 0x3e, 0x82, 0x49, 0x9f, 0x3e,
  0x11, 0x8b, 0x89, 0x3e, 0x9d, 0xb6, 0x9f, 0xbe, 0x1f, 0x49, 0xd6, 0xbe,
  0xc9, 0x7f, 0x47, 0x3e, 0xa5, 0x76, 0x8f, 0x3e, 0x2b, 0x27, 0x89, 0xbe,
  0xc6, 0xb3, 0x72, 0x3e, 0xbd, 0xf9, 0xb2, 0xbe, 0xfa, 0x01, 0x16, 0xbe,
  0x04, 0xc0, 0xaf, 0x3d, 0x36, 0x0d, 0x61, 0x3e, 0x61, 0x17, 0xd3, 0x3c,
  0x55, 0x68, 0xa9, 0x3e, 0x85, 0x4f, 0xfd, 0x3c, 0xbb, 0x9b, 0xb0, 0x3e,
  0xb0, 0x1b, 0x06, 0x3e, 0x67, 0x54, 0xbe, 0xbe, 0xb5, 0x21, 0x34, 0xbd,
  0xb3, 0x58, 0x0b, 0xbe, 0x53, 0xcd, 0xcf, 0xbd, 0xfa, 0xdd, 0x60, 0x3e,
  0xd9, 0x9d, 0xa6, 0xbe, 0x52, 0xe6, 0x52, 0x3e, 0xa0, 0xb8, 0x72, 0x3c,
  0x00, 0x80, 0x29, 0x3d, 0x44, 0x6e, 0x8c, 0x3e, 0xc0, 0x0e, 0x5a, 0xbc,
  0x23, 0xed, 0xde, 0xbd, 0xb7, 0xb0, 0xb4, 0xbe, 0x7c, 0x06, 0x14, 0x3e,
  0x75, 0x1a, 0xec, 0xbe, 0x7a, 0x55, 0xfd, 0x3d, 0xc4, 0x96, 0xce, 0xbd,
  0x07, 0x83, 0x14, 0x3e, 0x9a, 0x7a, 0xc9, 0x3e, 0xe3, 0x3c, 0x3a, 0x3e,
  0xc0, 0xbc, 0x99, 0x3c, 0x13, 0x26, 0xde, 0xbe, 0xd2, 0x9a, 0x8f, 0xbe,
  0x1e, 0x0b, 0xee, 0xbc, 0x38, 0x47, 0x2d, 0xbd, 0xe7, 0x9f, 0x41, 0x3e,
  0xd9, 0xf7, 0x40, 0xbe, 0x4b, 0xca, 0x97, 0x3e, 0xed, 0x94, 0x8e, 0x3e,
  0x0a, 0x24, 0xa6, 0x3d, 0x91, 0xca, 0x8b, 0xbe, 0x9d, 0xae, 0xca, 0x3d,
  0xd0, 0x83, 0xae, 0xbe, 0x98, 0xa9, 0x87, 0xbc, 0xb3, 0xfa, 0xa8, 0xbe,
  0xd9, 0x09, 0x70, 0x3c, 0x0f, 0xf1, 0x92, 0x3e, 0x63, 0x04, 0xc8, 0xbd,
  0x12, 0x6c, 0x6d, 0xbe, 0x66, 0x32, 0xf8, 0xbe, 0xe4, 0x8f, 0xa5, 0x3d,
  0xce, 0x19, 0x29, 0xbe, 0xa2, 0x67, 0x1c, 0x3e, 0xb1, 0xcd, 0x47, 0xbf,
  0x4c, 0xe5, 0x0e, 0x3e, 0x21, 0x5c, 0xdf, 0x3d, 0xe2, 0xb8, 0xc1, 0x3e,
  0x5b, 0x38, 0x8a, 0x3c, 0xb2, 0x47, 0x92, 0xbe, 0x67, 0x0e, 0x9b, 0xbd,
  0x1c, 0x6f, 0x4c, 0x3e, 0x86, 0x52, 0xa3, 0x3d, 0xac, 0x30, 0xb1, 0xbd,
  0xc3, 0x22, 0x3a, 0xbd, 0x05, 0x95, 0xc2, 0x3e, 0x7e, 0x6f, 0x26, 0xbe,
  0xf2, 0xeb, 0x9a, 0xbe, 0x80, 0xca, 0xb9, 0x3e, 0xf3, 0x72, 0xaa, 0x3e,
  0x4c, 0x1c, 0x5c, 0x40, 0xd1, 0xff, 0xb2, 0xbc, 0x13, 0x98, 0x0f, 0x3d,
  0x88, 0x80, 0x8c, 0x3e, 0x62, 0xa7, 0x52, 0x3e, 0x10, 0xb2, 0xd2, 0xbd,
  0x6c, 0x48, 0x06, 0xbd, 0x60, 0x65, 0x31, 0x3d, 0x44, 0xb2, 0x35, 0xbc,
  0x6c, 0xf9, 0xed, 0xbd, 0xf0, 0x69, 0x78, 0x3e, 0x01, 0x02, 0xc0, 0xbe,
  0x3f, 0x79, 0x43, 0xbc, 0x2b, 0xf0, 0x98, 0x3e, 0x40, 0x43, 0x9e, 0xbe,
  0xa8, 0xd0, 0xba, 0xbe, 0x81, 0x34, 0xca, 0xc0, 0x18, 0xcd, 0x53, 0x3d,
  0xc8, 0xa7, 0x9e, 0xbd, 0x47, 0xf4, 0xd0, 0xbe, 0xb0, 0xfb, 0xec, 0xbc,
  0x3b, 0x06, 0xac, 0x3e, 0x2f, 0x37, 0x97, 0x3e, 0xee, 0x79, 0x53, 0x3e,
  0xe6, 0x00, 0x8a, 0xbe, 0xbe, 0x63, 0x21, 0xbe, 0x9c, 0x49, 0xb7, 0xbe,
  0x1b, 0x8c, 0x89, 0x3e, 0xb9, 0xe5, 0x80, 0x3e, 0x62, 0x7a, 0xbe, 0xbe,
  0x7c, 0x6f, 0xef, 0xbd, 0xc0, 0x0c, 0x83, 0xbc, 0x15, 0x47, 0xbd, 0x3e,
  0x00, 0xbe, 0x28, 0x3c, 0x1a, 0x26, 0xd1, 0xbe, 0x6c, 0x68, 0xf9, 0xbd,
  0x38, 0x70, 0x08, 0x3d, 0x0b, 0x92, 0x3c, 0xbe, 0x31, 0xb7, 0xd9, 0xbe,
  0x3e, 0x85, 0x83, 0xbe, 0x51, 0xd1, 0x70, 0xbd, 0x34, 0xc7, 0xfc, 0x3d,
  0xb1, 0x59, 0xab, 0xbd, 0x03, 0x80, 0xb3, 0xbe, 0x27, 0x8b, 0x4e, 0x3d,
  0x52, 0x61, 0x84, 0xbe, 0x72, 0x4d, 0x55, 0xbe, 0x61, 0x94, 0xd3, 0xbe,
  0x06, 0xc2, 0xc4, 0x3e, 0xd3, 0x9c, 0xb6, 0x3e, 0x0b, 0x35, 0x43, 0xbe,
  0x5e, 0xb8, 0x59, 0x3e, 0x60, 0xe6, 0x21, 0x3e, 0x0e, 0x10, 0x59, 0x3e,
  0x45, 0x35, 0x68, 0x3e, 0xd0, 0xa9, 0xc7, 0xbe, 0x23, 0xf1, 0xec, 0xbe,
  0xc7, 0x6a, 0x89, 0x3e, 0x6e, 0xba, 0x9a, 0xbd, 0xf8, 0x6c, 0x2b, 0x3d,
  0x90, 0xbb, 0x0d, 0xbe, 0x03, 0x1e, 0x3d, 0xbe, 0xe0, 0x50, 0x67, 0xbd,
  0xce, 0xff, 0x61, 0x3e, 0x57, 0xe5, 0x9a, 0xbd, 0xc2, 0xfc, 0xff, 0xff,
  0x10, 0x00, 0x00, 0x00, 0x06, 0x00, 0x00, 0x00, 0x14, 0x00, 0x00, 0x00,
  0x68, 0x00, 0x00, 0x00, 0x02, 0x00, 0x00, 0x00, 0x10, 0x00, 0x00, 0x00,
  0x10, 0x00, 0x00, 0x00, 0x51, 0x00, 0x00, 0x00, 0x73, 0x65, 0x71, 0x75,
  0x65, 0x6e, 0x74, 0x69, 0x61, 0x6c, 0x5f, 0x38, 0x2f, 0x64, 0x65, 0x6e,
  0x73, 0x65, 0x5f, 0x31, 0x38, 0x2f, 0x4d, 0x61, 0x74, 0x4d, 0x75, 0x6c,
  0x3b, 0x53, 0x74, 0x61, 0x74, 0x65, 0x66, 0x75, 0x6c, 0x50, 0x61, 0x72,
  0x74, 0x69, 0x74, 0x69, 0x6f, 0x6e, 0x65, 0x64, 0x43, 0x61, 0x6c, 0x6c,
  0x2f, 0x73, 0x65, 0x71, 0x75, 0x65, 0x6e, 0x74, 0x69, 0x61, 0x6c, 0x5f,
  0x38, 0x2f, 0x64, 0x65, 0x6e, 0x73, 0x65, 0x5f, 0x31, 0x38, 0x2f, 0x4d,
  0x61, 0x74, 0x4d, 0x75, 0x6c, 0x00, 0x00, 0x00, 0xf4, 0xfc, 0xff, 0xff,
  0x02, 0xfe, 0xff, 0xff, 0x04, 0x00, 0x00, 0x00, 0x40, 0x00, 0x00, 0x00,
  0x3c, 0x8f, 0x0f, 0x3c, 0x85, 0xf8, 0x82, 0xba, 0xfb, 0x61, 0xc3, 0x3b,
  0x3d, 0x30, 0xbe, 0xbc, 0x03, 0x42, 0xf9, 0xbe, 0x4f, 0x89, 0xc5, 0x3c,
  0x79, 0x69, 0xdd, 0x3b, 0xa0, 0x75, 0xe2, 0xbc, 0x51, 0x0e, 0xd7, 0xbe,
  0xf5, 0x12, 0x7d, 0x3e, 0xbc, 0x46, 0xc8, 0xbd, 0x6d, 0x23, 0xa5, 0x3c,
  0xca, 0xbc, 0x5d, 0xbe, 0x6c, 0x15, 0x08, 0x3b, 0xe0, 0xea, 0x0f, 0xbf,
  0x1d, 0xcd, 0x6f, 0xbd, 0x8a, 0xfd, 0xff, 0xff, 0x10, 0x00, 0x00, 0x00,
  0x05, 0x00, 0x00, 0x00, 0x14, 0x00, 0x00, 0x00, 0x68, 0x00, 0x00, 0x00,
  0x02, 0x00, 0x00, 0x00, 0x10, 0x00, 0x00, 0x00, 0x01, 0x00, 0x00, 0x00,
  0x51, 0x00, 0x00, 0x00, 0x73, 0x65, 0x71, 0x75, 0x65, 0x6e, 0x74, 0x69,
  0x61, 0x6c, 0x5f, 0x38, 0x2f, 0x64, 0x65, 0x6e, 0x73, 0x65, 0x5f, 0x31,
  0x37, 0x2f, 0x4d, 0x61, 0x74, 0x4d, 0x75, 0x6c, 0x3b, 0x53, 0x74, 0x61,
  0x74, 0x65, 0x66, 0x75, 0x6c, 0x50, 0x61, 0x72, 0x74, 0x69, 0x74, 0x69,
  0x6f, 0x6e, 0x65, 0x64, 0x43, 0x61, 0x6c, 0x6c, 0x2f, 0x73, 0x65, 0x71,
  0x75, 0x65, 0x6e, 0x74, 0x69, 0x61, 0x6c, 0x5f, 0x38, 0x2f, 0x64, 0x65,
  0x6e, 0x73, 0x65, 0x5f, 0x31, 0x37, 0x2f, 0x4d, 0x61, 0x74, 0x4d, 0x75,
  0x6c, 0x00, 0x00, 0x00, 0xbc, 0xfd, 0xff, 0xff, 0xca, 0xfe, 0xff, 0xff,
  0x04, 0x00, 0x00, 0x00, 0x04, 0x00, 0x00, 0x00, 0x4c, 0x8f, 0x0b, 0x3f,
  0x16, 0xfe, 0xff, 0xff, 0x10, 0x00, 0x00, 0x00, 0x04, 0x00, 0x00, 0x00,
  0x10, 0x00, 0x00, 0x00, 0x58, 0x00, 0x00, 0x00, 0x01, 0x00, 0x00, 0x00,
  0x01, 0x00, 0x00, 0x00, 0x44, 0x00, 0x00, 0x00, 0x53, 0x74, 0x61, 0x74,
  0x65, 0x66, 0x75, 0x6c, 0x50, 0x61, 0x72, 0x74, 0x69, 0x74, 0x69, 0x6f,
  0x6e, 0x65, 0x64, 0x43, 0x61, 0x6c, 0x6c, 0x2f, 0x73, 0x65, 0x71, 0x75,
  0x65, 0x6e, 0x74, 0x69, 0x61, 0x6c, 0x5f, 0x38, 0x2f, 0x64, 0x65, 0x6e,
  0x73, 0x65, 0x5f, 0x31, 0x39, 0x2f, 0x42, 0x69, 0x61, 0x73, 0x41, 0x64,
  0x64, 0x2f, 0x52, 0x65, 0x61, 0x64, 0x56, 0x61, 0x72, 0x69, 0x61, 0x62,
  0x6c, 0x65, 0x4f, 0x70, 0x00, 0x00, 0x00, 0x00, 0x38, 0xfe, 0xff, 0xff,
  0x46, 0xff, 0xff, 0xff, 0x04, 0x00, 0x00, 0x00, 0x40, 0x00, 0x00, 0x00,
  0x00, 0x00, 0x00, 0x00, 0x57, 0x49, 0x81, 0xbf, 0x24, 0xf2, 0x01, 0xbd,
  0xb3, 0x26, 0x16, 0xbf, 0x00, 0x00, 0x00, 0x00, 0x41, 0x52, 0x79, 0xba,
  0x00, 0x00, 0x00, 0x00, 0x5e, 0xfb, 0xbe, 0xbd, 0x00, 0x28, 0xea, 0xbe,
  0x1c, 0xd2, 0x7d, 0x3f, 0x0d, 0xd7, 0xad, 0x3f, 0x5b, 0xd4, 0x95, 0xbe,
  0xc4, 0x97, 0x50, 0xbf, 0x00, 0x00, 0x00, 0x00, 0xf5, 0xc9, 0x01, 0xbd,
  0x50, 0xfe, 0x7d, 0xbd, 0xce, 0xfe, 0xff, 0xff, 0x10, 0x00, 0x00, 0x00,
  0x03, 0x00, 0x00, 0x00, 0x10, 0x00, 0x00, 0x00, 0x58, 0x00, 0x00, 0x00,
  0x01, 0x00, 0x00, 0x00, 0x10, 0x00, 0x00, 0x00, 0x44, 0x00, 0x00, 0x00,
  0x53, 0x74, 0x61, 0x74, 0x65, 0x66, 0x75, 0x6c, 0x50, 0x61, 0x72, 0x74,
  0x69, 0x74, 0x69, 0x6f, 0x6e, 0x65, 0x64, 0x43, 0x61, 0x6c, 0x6c, 0x2f,
  0x73, 0x65, 0x71, 0x75, 0x65, 0x6e, 0x74, 0x69, 0x61, 0x6c, 0x5f, 0x38,
  0x2f, 0x64, 0x65, 0x6e, 0x73, 0x65, 0x5f, 0x31, 0x38, 0x2f, 0x42, 0x69,
  0x61, 0x73, 0x41, 0x64, 0x64, 0x2f, 0x52, 0x65, 0x61, 0x64, 0x56, 0x61,
  0x72, 0x69, 0x61, 0x62, 0x6c, 0x65, 0x4f, 0x70, 0x00, 0x00, 0x00, 0x00,
  0x40, 0xff, 0xff, 0xff, 0x00, 0x00, 0x06, 0x00, 0x08, 0x00, 0x04, 0x00,
  0x06, 0x00, 0x00, 0x00, 0x04, 0x00, 0x00, 0x00, 0x40, 0x00, 0x00, 0x00,
  0x48, 0xca, 0x65, 0xbf, 0x99, 0xcb, 0xc6, 0xbe, 0x27, 0x1b, 0x1f, 0xbf,
  0x35, 0x71, 0x47, 0x3f, 0x00, 0x00, 0x00, 0x00, 0xa8, 0x8a, 0x1e, 0xc0,
  0xcc, 0xfa, 0x6e, 0xbf, 0x21, 0x39, 0x82, 0x3f, 0x00, 0x00, 0x00, 0x00,
  0xa7, 0xf1, 0x41, 0xbf, 0x00, 0x00, 0x00, 0x00, 0x2a, 0x78, 0x30, 0xc0,
  0x00, 0x00, 0x00, 0x00, 0x40, 0xb9, 0x63, 0xbe, 0x00, 0x00, 0x00, 0x00,
  0x1c, 0xc5, 0x7b, 0x40, 0x8e, 0xff, 0xff, 0xff, 0x10, 0x00, 0x00, 0x00,
  0x02, 0x00, 0x00, 0x00, 0x10, 0x00, 0x00, 0x00, 0x5c, 0x00, 0x00, 0x00,
  0x01, 0x00, 0x00, 0x00, 0x10, 0x00, 0x00, 0x00, 0x44, 0x00, 0x00, 0x00,
  0x53, 0x74, 0x61, 0x74, 0x65, 0x66, 0x75, 0x6c, 0x50, 0x61, 0x72, 0x74,
  0x69, 0x74, 0x69, 0x6f, 0x6e, 0x65, 0x64, 0x43, 0x61, 0x6c, 0x6c, 0x2f,
  0x73, 0x65, 0x71, 0x75, 0x65, 0x6e, 0x74, 0x69, 0x61, 0x6c, 0x5f, 0x38,
  0x2f, 0x64, 0x65, 0x6e, 0x73, 0x65, 0x5f, 0x31, 0x37, 0x2f, 0x42, 0x69,
  0x61, 0x73, 0x41, 0x64, 0x64, 0x2f, 0x52, 0x65, 0x61, 0x64, 0x56, 0x61,
  0x72, 0x69, 0x61, 0x62, 0x6c, 0x65, 0x4f, 0x70, 0x00, 0x00, 0x00, 0x00,
  0x04, 0x00, 0x06, 0x00, 0x04, 0x00, 0x00, 0x00, 0x00, 0x00, 0x0e, 0x00,
  0x14, 0x00, 0x04, 0x00, 0x00, 0x00, 0x08, 0x00, 0x0c, 0x00, 0x10, 0x00,
  0x0e, 0x00, 0x00, 0x00, 0x10, 0x00, 0x00, 0x00, 0x01, 0x00, 0x00, 0x00,
  0x14, 0x00, 0x00, 0x00, 0x24, 0x00, 0x00, 0x00, 0x02, 0x00, 0x00, 0x00,
  0x01, 0x00, 0x00, 0x00, 0x01, 0x00, 0x00, 0x00, 0x0e, 0x00, 0x00, 0x00,
  0x64, 0x65, 0x6e, 0x73, 0x65, 0x5f, 0x31, 0x37, 0x5f, 0x69, 0x6e, 0x70,
  0x75, 0x74, 0x00, 0x00, 0xfc, 0xff, 0xff, 0xff, 0x04, 0x00, 0x04, 0x00,
  0x04, 0x00, 0x00, 0x00
};
unsigned int _home_mrrumpf_build_planb_vscode_template_linux_models_model_no_quant_tflite_len = 3172;
